/**
  ******************************************************************************
  * @file    usc_network_data_params.c
  * @author  AST Embedded Analytics Research Platform
  * @date    Sun Apr 19 20:10:34 2026
  * @brief   AI Tool Automatic Code Generator for Embedded NN computing
  ******************************************************************************
  * Copyright (c) 2026 STMicroelectronics.
  * All rights reserved.
  *
  * This software is licensed under terms that can be found in the LICENSE file
  * in the root directory of this software component.
  * If no LICENSE file comes with this software, it is provided AS-IS.
  ******************************************************************************
  */

#include "usc_network_data_params.h"


/**  Activations Section  ****************************************************/
ai_handle g_usc_network_activations_table[1 + 2] = {
  AI_HANDLE_PTR(AI_MAGIC_MARKER),
  AI_HANDLE_PTR(NULL),
  AI_HANDLE_PTR(AI_MAGIC_MARKER),
};




/**  Weights Section  ********************************************************/
AI_ALIGNED(32)
const ai_u64 s_usc_network_weights_array_u64[42378] = {
  0xbc9d10623dbd99c2U, 0xbde8f7373e01ad67U, 0xbe4893893e4b28f4U, 0x3d7f0378bcd810ffU,
  0x3dd92e7f3d2b3df9U, 0x3df5f13d3cc53758U, 0xbc9da6e1bc463bb5U, 0x3e1d4022bcd36985U,
  0xbd5d56d6bddc283bU, 0xbe1857b5bde74ddaU, 0xbd8bd7e53e27dd5eU, 0x3d4e074ebd76c3ecU,
  0xbe0c6d5b3de0285aU, 0x3d59be633e177dd7U, 0x3de477e3be094bd1U, 0xbddc8991bc194b9dU,
  0x3d6803d53c3fcd08U, 0x3dbb69e1bddfc9c0U, 0xbdabbfb4bd9e7e94U, 0x3d3756773e2f9d85U,
  0x3d82f6803d4982dfU, 0xbe3e8f44bdce7f13U, 0xbd3a9edd3c442be3U, 0xbd0b3587bd911864U,
  0xbdf0393dbb2a602eU, 0xbe095318be3f1884U, 0xbd19c49cbdf9e192U, 0xbe0491b9be4ca6bdU,
  0xbdf0cff4bde50ef3U, 0x3e12def63d2ad4a8U, 0x3d53b58abe5d2ca6U, 0x3b2b570fbda6c339U,
  0xbe5101913d090681U, 0x3cb5d734bdb2a892U, 0xbcf0431e3e1a58d1U, 0xbe06deff3d1da3a0U,
  0xbe31d0a53e363936U, 0xbe0b14173e1efb30U, 0xbd0292b73e0f4f90U, 0x3aa74a473e31af88U,
  0xbe043b9b3e521fc0U, 0xbdf4b99b3e46ab17U, 0xbcb2506b3bfb0989U, 0x3dd58e25be3824b5U,
  0xbd98d52fbcdd0bb0U, 0xbe01b20bba511768U, 0x3b8782e43b8cc11fU, 0xbc35c1ccbdeeedbbU,
  0x3dc3bcbbbb27f06cU, 0x3dbecec7be02fb2aU, 0xbe10825fbd5a0fbfU, 0xbe76cb09bdcaac59U,
  0xbd8fc5643b101318U, 0xbbbc3099be20d83eU, 0x3dbfff6dbd7ccd1bU, 0x3d5a8d6e3d51c3cfU,
  0x3dc9f33f3d5fd2fcU, 0x3e081ec3be396e74U, 0xbca9568b3e46bb1cU, 0x3d14c6533e214d4cU,
  0x3e06fe41be1cbcffU, 0xbccf95203d3080c3U, 0xbd8ccbeabd22450eU, 0x3d024fee3e18b5e0U,
  0xbdefd176be2987a5U, 0xbdc39a2bbe39ca3aU, 0x3d3a0784be5656feU, 0xbe115651bde5a465U,
  0xbd982b3bbd27f4d3U, 0xbd35080a3d3240c7U, 0xbe4083b33d77fbdfU, 0x3dc69d80be25dcd0U,
  0x3c8977143c48779bU, 0xbb3894b93d23e3baU, 0xbdaaaac73d7778e1U, 0xbbb73dfbbba22af0U,
  0xbb117588bc960190U, 0x3b7e63843d889151U, 0x3d71182d3d9431dcU, 0x3c93543dbd0bd7c5U,
  0x3eff90ba3ef61ef4U, 0x3f87a7873f4cf976U, 0x3ec61f383f610b2fU, 0x3f970dae3ed61f4dU,
  0x3f24339d3f035cfdU, 0x3ec59b3d3f5d71f2U, 0x3ee6c1e03e92b4e7U, 0x3f084b943eeb69c2U,
  0xbee335a4bed041abU, 0xbef3165fbef70b78U, 0xbe1ef57abec438a5U, 0xbe7d38f7be86414eU,
  0xbebe6894bf5ffec4U, 0xbe6a55fcbe98df11U, 0xbeab7d87bf0a9213U, 0xbe897eb2be7cf759U,
  0x3db49834bde87892U, 0x3d6a613a3d2c4e75U, 0xbdd5a12b3ddfd27dU, 0x3c9f45bcbd0a27b2U,
  0x3db8cc54bd81d63fU, 0x3dee5eef3d4fb779U, 0x3b238d0fbdbbd9f4U, 0x3d6e64d63def962bU,
  0xbd812aebbc8d7c87U, 0xbdb7cbec3c8496f7U, 0xba5ad5003dd2e00aU, 0x3d29f3c2be2c6ff9U,
  0xbd97bf28bd8ab106U, 0xbdcb0ecdbd8e1779U, 0xbd39206e3e0f315dU, 0x3cef9798bd4db915U,
  0xbdc13dca3c7ac2b5U, 0x3db6d8c93d86aa0cU, 0x3ccb1eae3cc98ac9U, 0x3dcbdff53df58b25U,
  0x3db75adb3c610a8fU, 0xbd7000603d9f8f0eU, 0xbbdb50953d7b8bd7U, 0x3dd835a43d00f19dU,
  0xbd89644fbdd6ebd6U, 0xbdbf83263bd18746U, 0x3d92352e3c6e2713U, 0xbd82e0b2bd7e2e1aU,
  0xbd849610bde67a6aU, 0xbda464e2bdf430b8U, 0x3bd2358f3cc4e0c2U, 0x3d17f615be044627U,
  0xbc86e17abdbf45c2U, 0xbc9e79ee3d0a2ba4U, 0x3d8aceecbd552375U, 0x3d7aee9bbc22214cU,
  0x3db8dbe43c02a137U, 0xbce4b6e2bd561adeU, 0x3d6cb03ebce0ba8bU, 0xbd9946003d87e7d6U,
  0xbdceafb1bac0e2c1U, 0xbc3d4112bd5bc764U, 0xbce2561bbdb35ef7U, 0xbb3de4e53dc34d5bU,
  0xbd8d13fabcc1883aU, 0xbc955ed3bdf20c16U, 0xbd55cf053dad04d8U, 0xbd0189f03c85752eU,
  0xbd7a5a62bd4c1f9fU, 0xbcfcaaa1bdf4cb86U, 0xbe0ad2f33ca3983cU, 0xbd740ccabd9b9913U,
  0x3d3039783d46176fU, 0xbd1a034ebd862eb4U, 0x3cffec613dbcf22bU, 0x3d2676a93d76f51cU,
  0xbddbd238bdfae1cfU, 0x3d4e7c863dd648c6U, 0xbd3a483a3dc6b37cU, 0xbe054a60be0efe6fU,
  0x3dfbbadebdd40630U, 0xbd6410cdbdd1e0d2U, 0xbd27350739f8e91fU, 0xbd864102bde1871eU,
  0xbd283b643b8058c3U, 0x3dd7a674bc91d1faU, 0x3d515df43da5488dU, 0x3d94bb893dbc7cecU,
  0xbdab17a43e118d37U, 0xbd689137bc19382cU, 0x3daa27333e091258U, 0xbdddd75dbcab58a4U,
  0x3d428d48bd47bcd6U, 0x3ddae5393d79153dU, 0xbc2d543c3b715332U, 0xbdfa6de2be0172caU,
  0x3d9a32623db6ddf6U, 0xbe18dfd7bca514d6U, 0x3e0b7aaabd3938c6U, 0xbcb3854abd8eef08U,
  0x3d9c26723d2aa45aU, 0xbd78e7febd89e4f5U, 0x3d3954c5bdc64284U, 0xbda590aabd8fbddfU,
  0x3e02b98bbd32b9e8U, 0xbdb46de5bdab5cb2U, 0xbdbae18dbdbebea8U, 0xbba958d83c71f2e3U,
  0x3cee25283d9e3840U, 0xbd82576abd80f21cU, 0xbddffaafbbc4697eU, 0xbda756e73c860dbfU,
  0xbd2c10cbbd07c91eU, 0x3cdcc3693de34f4aU, 0x3d05264a3e08e5b2U, 0x3de6b9853d6ebc33U,
  0x3ccbca783cc16326U, 0x3c9db8933d9650c6U, 0xbcb692f3bd199cafU, 0xbd99d3ecbd9bdf05U,
  0xbcb36a13bdca0dfeU, 0xbd894a51bdff4729U, 0xbd04b8d8bdaa50e7U, 0x3d33a6d8bca2f7ebU,
  0x3dfb35b03d33d1f7U, 0xbda6e8ba3dd6a8ddU, 0x3ca858e5bd8e8952U, 0x3dad8d86bc0b982aU,
  0x3d206ec13d45e35bU, 0xbd7b65bd3db853b2U, 0xbe0c650d3dab3111U, 0x3c6cf1abbd4345c7U,
  0x3df502e7be114aa2U, 0x3d9480f7bd3f5fa5U, 0xbd9f0764bd7130fdU, 0xbd456544bd0bfb23U,
  0x3dadc2bdbc38e882U, 0xbd6c2b0bbe029ddeU, 0xbdc45b88bddc5457U, 0xbd91f89ebc2fa029U,
  0xbcb07d0e3d9e6a31U, 0x3dbffa6cbd439cacU, 0xbd324fe83dd176efU, 0x3dcd7180bd9e0c2cU,
  0x3dc57f6dbd270b88U, 0xbd08c34a3cdee9f2U, 0xbc890203bc83b9e2U, 0xbdca6a803c20c8cbU,
  0xbdd4e610bdc050f0U, 0x3c9c4b2d3d932d7eU, 0x3c386aaabd57a4e7U, 0x3ca60b6dbd887f5dU,
  0xbdefa896bd3a305bU, 0xbcc2ef233dc7ee35U, 0x3d6cf9383d082617U, 0x3d7efcb23d1a72eaU,
  0x3e05aaac3bb3e493U, 0x3dd0a4d33c5a6639U, 0xbde0d087bbfda6bbU, 0xbdb84a283c4b056cU,
  0xbdcad7143e151fd7U, 0xbc3db4f43cf10fe2U, 0x3c3791b5bdc7566aU, 0xbde9f7acbde3f8ccU,
  0x3d9a51e7bd1e368eU, 0x3dee63e9bd44553dU, 0x3d0e584f3dd12080U, 0xbd2fff74bd58a603U,
  0xbdeecc423d2a337dU, 0x3d9954aabd64d359U, 0xbd54c47c3c904836U, 0xbc2b78c03dd5e0f5U,
  0x3d556919bd15cf3dU, 0x3da9c2a53dd826a9U, 0xbddeded93dc38adbU, 0xbd90e8733d8e2fe9U,
  0x3da49010bc4a4016U, 0x3da4372fbca59f01U, 0xbe03bf24bca20951U, 0x3b70353d3de4304bU,
  0xbdbf0aa8bc80c522U, 0xbcb7f7533d57332fU, 0xbd2e4aa1bd3ae0d2U, 0x3dbb6cab3d3a5522U,
  0x3dde09bf3d3c54a6U, 0xbcf5e5963d3f2025U, 0x3d33bccebc0cc9b9U, 0x3dfa2c7ebb1b9aedU,
  0xbdf30e0dbe0f3a9eU, 0x3d7cd4e83dff1383U, 0xbe0a184b3d49c811U, 0xbc2b0d31bddd4b7dU,
  0x3deab2a9bd89bf88U, 0xbd7890823cc0e2ceU, 0xbd9d4638bd9444a3U, 0x3d902862bd7dd93fU,
  0x3d82b1bfbda522e9U, 0xbd1ff9383db1e0dcU, 0x3c7d86f3be17f4b4U, 0xbe1233063db3fbcfU,
  0x3d990047bd7a4c58U, 0x3d526eb73d2ad1e9U, 0xbd805c103d4ef412U, 0xbd11270cbdc90b14U,
  0x3d863b563d27c167U, 0x3d60cf553c892d4bU, 0x3c14c3b03da055c5U, 0x3d9aa02dbc8af06aU,
  0x3d912903bda3b19dU, 0xbdab7e743d19b9f7U, 0xbd6398c7bdcccc0bU, 0xbc7ec3e2bd4518f8U,
  0xbd121b6ebb08a9ecU, 0xbdc46c373d5a6456U, 0x3b1c7ad8bd4a990cU, 0x3dbc46debce22282U,
  0xbe152490bd9a3cf4U, 0xbde9b79abd8a28f7U, 0xbd9cb4ce3da6d8a4U, 0x3def7bef3c185e7bU,
  0xbe0ca4c0bd80de37U, 0xbd461871bdceb6d9U, 0xbd8fd782bd5a03bbU, 0x3defe75dbe15d779U,
  0xbd693de9bd18221fU, 0xbde458c33e0030baU, 0xbdeb9369bbab48fcU, 0xbca8d0cebdd4a81fU,
  0x3d6f58dfbd37a525U, 0xbc2c89bb3e092a90U, 0xbdabd5783df1059fU, 0x3ddf8b1e3db57968U,
  0xbcd408e73d000b0fU, 0x3de86a743da4b0d7U, 0xbc8dd23abdf16b99U, 0xbd96b1ab3bc5563dU,
  0x3dc427b93c548c26U, 0x3d9ff3163dc199deU, 0x3c607f85bd0965e3U, 0x3db833ef3dba3d37U,
  0xbccda349bdeb948dU, 0xbd74986ebda270f5U, 0xbc71924f3cb0ac54U, 0xbcc32f64bd5a5cdaU,
  0x3da14764bde3b81fU, 0x3c3104cc3e2133edU, 0xbdb1df57bda3e62aU, 0x3de437833d9ea68fU,
  0xbd5d1743bda1e575U, 0xbbba8b943cd80560U, 0x3d03068cbdd0f19bU, 0x3dfef812bb34c714U,
  0x3d1896f13d6528e2U, 0xbda2f466bd78c431U, 0xbdb1757c3cf62746U, 0x3d331a4c3d8731f0U,
  0x3d24c4b8bdc746f2U, 0xbc23ac63bdcb84faU, 0xbd4d96623d514e82U, 0xbdcf61f63c624e61U,
  0x3d5d06b8bdced0feU, 0x3de31bd0be041cd8U, 0xbdf1be41be02eeacU, 0xbce746e4be010282U,
  0xbde8bdbcbe333384U, 0x3d1a85d9bd17abaaU, 0xbd8d02f2bd6c1511U, 0x3d1f7d543df9729bU,
  0x3d6b3311bca1ad1fU, 0x3dbe99aa3e1f82ebU, 0x3c2fcf41bd9f0233U, 0xbcd8c0e5bd9ef64bU,
  0xbd3c7ea8bd8fe51aU, 0xbd934fb0bbada7daU, 0xbd9cb617bdbae291U, 0xbc672a2fbd6200a0U,
  0x3d9a91fabd27826cU, 0x3cbea9d3bda82e84U, 0xbdd34d87bcf240c4U, 0xbd330f0bbd09beb3U,
  0x3dc2d75fbb4b1999U, 0xbd2d43b2bdc55765U, 0xbd99cf513d41bfefU, 0xbc6eb4bfbdf354d3U,
  0xbce5aca63d47c0cfU, 0xbc130d99bdcc30baU, 0xbdfd95523dc6ce6fU, 0x3bd60476bda59301U,
  0x3c95dc3fbda64d78U, 0xbd89b182bd03b68fU, 0xbd1b6b523dd2195dU, 0x3dc63d8fbd939ef1U,
  0xbcf76150bd03fd98U, 0x3dd1594c3d81d5edU, 0xbe08f9163daabe31U, 0xbd8bae293d97f239U,
  0xbc6081fb3d8d2e75U, 0x3bac3777bcc06a7bU, 0x3de35df1bda26c73U, 0xbd8d885fbd87d963U,
  0x3d6a824ebddbf55cU, 0x3e0a428ebde0a5c6U, 0x3d8f8f5bbdabca60U, 0x3cb7d63cbdc3ba3eU,
  0xbdc7da33bbdad6e6U, 0xbdc83ee13dc5f68aU, 0x3df334463dd6317eU, 0x3cbbfed4bd889288U,
  0xbe0fb226bddd19fcU, 0xbd73ab543d5cdfc8U, 0x3dc1773bbd918c41U, 0xbd6462d7bd7b50e0U,
  0x3c869da4bbe53713U, 0xbd95af82bd613e11U, 0xbda145aebd2261fcU, 0x3cbcbd33bdaa423fU,
  0xbd9d2eb9bd8e9b90U, 0xbd16a929bd96d2f6U, 0x3c09eb163dfd1ef4U, 0xbe0a7cd93de0d940U,
  0xbe0dfddd3c22bb69U, 0xbe13f1ffbe063a39U, 0x3cbca3953dc898f2U, 0x3d0ad5f2bd25733cU,
  0x3dda7b7bbd9eda05U, 0xbb78f86dbe008d09U, 0x3de4c8f1bc7e7e47U, 0xbdbbeb893d12fcb6U,
  0xba46165d3c0480b2U, 0x3de2e32d3ddb5703U, 0x3b679e8b3dc39fdaU, 0xbdfdc504bdae1e08U,
  0xbb639506be21ba15U, 0x3d86f3d93dd4db5dU, 0x3d0569de3d91e378U, 0x3d1abcef3df43dd3U,
  0xbdb0bd03be0f66c8U, 0xbdd3a7a03d43fc95U, 0xbdba1d1e3ad65b55U, 0xbd9d5cf5be0bceddU,
  0x3cebfcebbd7788f3U, 0x3c7597bd3cc8c347U, 0xbdc7c3143e0bcc74U, 0xbdead81dbcee1185U,
  0x3d112443bcf2b4acU, 0xbe038ad93d6778b9U, 0x3d38e9f83dd77479U, 0x3d386119be16ee81U,
  0x3d1717a3bd478d79U, 0xbd3db525be17c046U, 0x39a1b3f83c5a8260U, 0xbe1e1d83bdfa8c74U,
  0xbdc93b3b3df26089U, 0xbd7d2ddd3dac1b88U, 0xbd92b0793dfb6754U, 0x3d209d853d06ee18U,
  0xbe197cbfbc0a48f8U, 0xbd6aa9fdbe03b9c8U, 0xbd562dedbdff6be6U, 0xbc89b2af3d30aa16U,
  0x3abfc7febd380a00U, 0x3d5327f83d4ed438U, 0xbd5fcfefbe097cfcU, 0x3d1b0a473d457999U,
  0x3d66e8823da45ae4U, 0xbcb99372bd878854U, 0xbd94b01f3d9b5269U, 0x3d8183e83ca8d132U,
  0xbc8f9180bd8998c8U, 0xbd4f869abdf22a14U, 0x3c12ec9abe0b3378U, 0x3d58c722bcc3188fU,
  0x3cacb646bcc8b6a5U, 0x3cd835623e0ec7d9U, 0xbb6151373d108220U, 0xbd9ef2b0bd32ff01U,
  0xbc9c8a693beb1cadU, 0x3d837cecbdca282eU, 0xbded389a3da0f613U, 0xbdba492ebdaa4b23U,
  0x3dde40b93c00d2d9U, 0x3d92e9c43d437157U, 0xbde80273bdacb3dbU, 0xbd9783283cc5a528U,
  0xbde2c8323e03fac1U, 0x3dfc9f30bde20fd3U, 0xbd93a092bdcba408U, 0xbdae3ed73cf1569cU,
  0xbd946dff3cbb778eU, 0xbc2ec17dbae909d1U, 0xbd986281bd930bb4U, 0xbca8c1bbbdd0b73fU,
  0x3db759dfbd526518U, 0xbda6abddbdf2a6c4U, 0x3c8cf0b3bcd4dff9U, 0xbd63a70b3d540b44U,
  0xbddb7bbc3bc814d8U, 0x3d5200ae3e0eb05eU, 0xbd7a57fcbd8aad95U, 0x3ce68f2dbdbd794cU,
  0xbc264048bde6cd3fU, 0x3d9c05693dc9133dU, 0xbd8c44c43c457730U, 0xbda829a13d0b9156U,
  0x3d49e2923e058a69U, 0x3d7a5913be044546U, 0x3d9493b4bcf11d5bU, 0x3d8895003d1f4a87U,
  0xbc68aec83d32c440U, 0x3dbcdb07bdec234dU, 0x3d93c4ce3ded7acdU, 0xbd806868bdeebf8aU,
  0xbdeb59bc3d531debU, 0x3bfe8bbfbd55321dU, 0xbdd66e993c672250U, 0xbd7e360ebd764204U,
  0xbb96b9b1bbece77fU, 0xbdd3ebd6bda7ed3bU, 0xbdbbebdfbdef716aU, 0xbd8c88353d259423U,
  0xbd0214643d3e1307U, 0xbd60a46a3dfb8174U, 0xbd9617c5bdf993cdU, 0xbdb74c44bd9e9f64U,
  0x3e091adabe07aefbU, 0xbce3b6343da52989U, 0xbae7c929bdedfd98U, 0xbe07d9ab3dd82bb2U,
  0x3e00497e3dd2101bU, 0x3dbcac8d3c31789bU, 0xbcef368a3d24eb3fU, 0x3b819d66bd16a6aeU,
  0x3d5f08793cc4bafeU, 0x3d9bc629bd72efc9U, 0x3d5a5fd7bd0d1834U, 0x3db9de0fbc356e35U,
  0xbe0e66d9bd15633eU, 0xbd90c7943d1c63f2U, 0xbcaf4cf83d3b61cfU, 0xbd9ede71bd5e36e0U,
  0xbdb538ac3d961617U, 0xbda915693c92d41dU, 0x3da69880baade444U, 0xbb71852f3dcfda47U,
  0x3c43bcf73d0975b7U, 0x3d3d9c413c93d2ebU, 0xbe020d433d0b5bd9U, 0xbc46c6653da52fd1U,
  0x3e1241b3bdc98cc5U, 0x3c498726bd457af7U, 0x3dc3c8023dbb69dbU, 0x3d8872603c8426a8U,
  0x3de21e4bbda013c4U, 0xbd5d9fedbd72c4d0U, 0xbb791ff73da4c55eU, 0xbd6abfa73df54282U,
  0x3d89477a3e0f9473U, 0xbda79d4abdcb87feU, 0x3e13cfadbd8f0f7bU, 0x3d5569983d854a14U,
  0x3df7e7e3be0761c3U, 0x3dc193f6be09caffU, 0x3df27c74bde132daU, 0x3db9c5973dda0032U,
  0xbcd0a0453d22085cU, 0xbd44af56bd545df0U, 0x3d67b6593da1315eU, 0x3dca72cbbd8923b2U,
  0xbb85f146bd97f4b6U, 0xbdc0946abe123ac2U, 0xbd99b788bdce8ed4U, 0xbdd6a380bd895a8fU,
  0x3d54d7cbbe2b6af1U, 0x3c4193d63e2136f0U, 0xbe034c9abdd94d7fU, 0x3e1aad203d9d75e5U,
  0xbd4e90ca3d2ff39aU, 0x3d9487f13dc44c71U, 0xbce5bfe03e2a1c49U, 0xbe1b96983da18a4dU,
  0x3dc9ef3ebdbbf7e7U, 0xbb2316343d94b8f6U, 0xbcef0ffd3da21d87U, 0x3cdae5e73c950558U,
  0xbb849074bdbbc996U, 0x3dad07f0bcc6ffadU, 0xbdb29ffe3cc18a88U, 0xbe0c612bbdb60203U,
  0xbc84db3ebd3b6d3dU, 0x3d592aeebddc1181U, 0x3d2c383abda80038U, 0xbd0d05fbbdea0af1U,
  0xbdca04b8bd6015b8U, 0xbdfb56ffbd548f9eU, 0xbd612bc1be0ad9a5U, 0x3c2feda53c28243bU,
  0x3ce25c44bdedf82dU, 0xbbc5a4a8bd972508U, 0xbd53ec793d735a38U, 0x3dd9d3b13de296b3U,
  0x3c6f443a3cee5210U, 0x3d36355b3d1bcf4dU, 0x3c399aeabc5f66e7U, 0xbe1a0f793da95fd9U,
  0x3dd84f9d3bcf0fc5U, 0xbdddba0bbdcdeeffU, 0x3d154d2f3cb91072U, 0x3d653b733d08d5c5U,
  0xbdcf469eb82d08b8U, 0xbd1b0f603c8191d4U, 0xbc989596bcc6a342U, 0xbd2ff7c53aa7302cU,
  0x3deefac93d94ef1cU, 0xbd30c8cebd839382U, 0x3c7c3ffbbdd56f08U, 0x3d9156ca3bff6d04U,
  0x3c2b57053d6d179fU, 0xbdb14be53daaad15U, 0x3de7a7e6bc22b97aU, 0x3b2ed3ee3da48f70U,
  0xbda2c948bdb2999cU, 0xbd93b7c03da86bb3U, 0xbdb279f6bd0f172aU, 0xbd359fd1bc949b66U,
  0x3b90c45c3ccd98c2U, 0x3da2fad6bc90f88eU, 0xbc3b709cbd73d8b6U, 0x3d77dd01bdb63393U,
  0xbde62cb3be226e16U, 0xbd33e4043d0dccc5U, 0xbd88091abdc493b3U, 0xbd8d3ebe3dda1e8fU,
  0xbe01847ebdb186afU, 0xbc2a4c63be01a008U, 0x3d09b781bdc096f0U, 0xbdb81f3abdd5c362U,
  0xbd83d606be09a1bcU, 0xbe22167abe04affaU, 0xbd879f5c3d3b9841U, 0xbdc98e78bdac642dU,
  0x3cd1c7d93ce7c89aU, 0xbc2831b9bdd2445fU, 0xbd410784bde6d94bU, 0xbc00d19ebd8df87bU,
  0xbd1e9d2fbdb3be8aU, 0xbd997febbcf0837cU, 0xbc53b7d23dd52346U, 0x3cf18ed4bd9fa255U,
  0xbd4e1537bd13d7ddU, 0x3e0af979bd733c1eU, 0x3d57cd653ce4d418U, 0x3de013ee3d7d7364U,
  0xbd2f1665bdbad3e7U, 0x3d0344e13dbce6e2U, 0xbd2829063d8a16e3U, 0x3d24096fbd0b436cU,
  0x3dd267e23d81a78aU, 0xbd7ee3143d920b07U, 0x3dc4f398bcb106a4U, 0x3d885c993caececeU,
  0xbd8cddc53b4e8ae5U, 0xbc880683bd3ca8edU, 0xbdb5058e3dc10a8eU, 0xbe0a1b6abdcf3850U,
  0x3d3ac0993d686c82U, 0x3d55251c3dee9f7aU, 0x3d95e0883c3c30eeU, 0xbdcf05823dffdea7U,
  0x3d62be36bd77ad56U, 0xbdba9a59bca34034U, 0xbbf8a6b03d401fe2U, 0xbc9984183ddedd42U,
  0x3d9cc81c3daae4c8U, 0x3dbe6f283c1e85f5U, 0x3b028c403dca0298U, 0xbdd760943dadfbd3U,
  0x3c934f953d0c85a4U, 0x3d0d879bbdd347cfU, 0x3df7c9a0bdbae30cU, 0xbdd387973dc9e270U,
  0xbdffb246bd0065f6U, 0xbde666cdbdfd69ecU, 0xbd1b3df5bdcdf2a6U, 0xbca627343da928fdU,
  0xbd351ff53d0231ceU, 0xbdec388c3c814d2bU, 0x3dc5c7003d513270U, 0xbe281650bdd052a7U,
  0x3d00cf24bdaa428cU, 0xbd374ba03d115bf4U, 0x3d8dc717bdc4a21bU, 0x3d88f2f13dee1529U,
  0xbdc170a6bc8320e7U, 0x3e08f104bd8322b1U, 0x3cb6566d3dd51f8eU, 0xbc10ed86bc37bb4dU,
  0xbdcfe2b3be2c6fbdU, 0x3dbc63823dc14849U, 0xbd175204bd2e12cfU, 0xbdbe72193b8cb2dcU,
  0x3e297c81be458f8cU, 0x3dac4882bd95d34fU, 0x3dc6e678bdb5a2bfU, 0x3dd75eb8bddb9689U,
  0x3daf416bbe0928faU, 0xbd5a468dbd827c9aU, 0xbb87977ebd528352U, 0x3da22567bdf7abf3U,
  0x3d3ded953bdddcfaU, 0xbcd885adbdf0ac00U, 0xbe199b073cb284b2U, 0xbd88573f3c3a0f8dU,
  0xbe126bf3bdcd6d56U, 0xbdf3f680bd9d8380U, 0xbdf9c56abd95bab4U, 0xbbcc8e433c9d5a53U,
  0x3dab966c3df06437U, 0x3c8884b0bdf0967fU, 0xbd8bd2b13dbf42f1U, 0xbe04e0b83dd7afb6U,
  0xbce751c2bdee49c1U, 0x3e047b463ddc996bU, 0xbd164054bd9874d9U, 0xbd9f9035bdf8b107U,
  0x3c31e6fdbe1d4b8bU, 0x3ce89002bdb8e8faU, 0x3d9415cdbe0917e6U, 0xbd409462be0a874bU,
  0xbd04e3553defba0aU, 0xbdbb91063cea8f99U, 0x3da8744dbd142f84U, 0x3d933434be1aefa9U,
  0xbd9a1f333d975b30U, 0xbd8b1535ba3c198eU, 0x3ca871723d5b8047U, 0xbe2eff9cbd8f2c5dU,
  0x3d319345bbf57b84U, 0x3c2019f8bde7e22aU, 0xbddc18033ddea7e5U, 0x3d62b7d63c101ed4U,
  0x3e173cd23d83bb36U, 0xba9b92223c094002U, 0xbd5cda14bd287b0dU, 0x3d9b2b30bd8a1a37U,
  0xbdba73c2bda5fa2fU, 0x3ca0cc0e3de59c9eU, 0x3b2636c8bcb86e7bU, 0xbddafb40bde149f0U,
  0xbdc0f33cbd5bf767U, 0x3ccb7f28bd515e09U, 0x3e0182713dbf0185U, 0x3c16b29dbbce7329U,
  0xbdc50ab33c9e1033U, 0xbcb5a3153b4751d3U, 0x3dac97db3daaa354U, 0x3d9fa6ecbe2b27bbU,
  0x3d5459cb3b786ca1U, 0x3c5c3d3f3c2334cdU, 0x3d9a78203ce8aad0U, 0x3d01d2063c4927d3U,
  0x3c7f32883ba30e8fU, 0xbdd09d1cbd7311beU, 0xbe0092663d699ce5U, 0x3d146827bdcc561dU,
  0x3d9bf5d6bdd8bd60U, 0xbd9b0ea13d476149U, 0xbd894d9dbdbaf709U, 0xbe18b8033d5c257cU,
  0x3dbff749bde5b2e7U, 0xbe17495bbd1a861dU, 0xbd9a2eeabdf1cce6U, 0x3ac027533bbd7904U,
  0x3b45087ebddbf455U, 0xbca5e289bda750a2U, 0x3dbfbfd0bd877276U, 0x3d84e9edbcda277fU,
  0xbdae0ba4bd5c83f3U, 0x3d81ae28bc6e1534U, 0x3e0056d3bd99690fU, 0x3d856a053cc748d3U,
  0x3c32b9dc3ce90c02U, 0x3cf18779bd466e37U, 0x3de62b8cb932e895U, 0xbdffd2553d90ef7eU,
  0xbc0a63343de23141U, 0xbd40f2c9bdb1018fU, 0x3d2aeaf3bd361b6bU, 0x3cacc1b8bddb0d36U,
  0xbddf9ba9bdc30d0dU, 0xbe076a2eb95118c7U, 0xbd7341b23d5fdbe3U, 0x3ce8f5c73d4b13f3U,
  0x3d35fd4bbdb01136U, 0xbdbdf88abcf1daa2U, 0xbdd44edb3cf24d02U, 0xbddea8353d32d8b0U,
  0xbdc0a5d33bd5cd11U, 0x3e03b0003d878a6bU, 0xbdb309fabdb833e9U, 0xbd8f50963ddced2cU,
  0x3dc2765bbcd3b37bU, 0x3cdc73fbbdef44aeU, 0x3d09caccbddd2527U, 0xbd9ee2683c2be9acU,
  0x3dfe0f08be04b957U, 0x3d822d663da89e60U, 0x3d1c79273df36c96U, 0xbc2913f1bd1320f4U,
  0x3c9b53863db7da4eU, 0x3d5cbffd3c5a8312U, 0xbdb9e149bca6b73bU, 0x3dd15650bd7ed1b4U,
  0xbdce084d3decf955U, 0x3d852303bd0d0b88U, 0x3e0576cabdc79b90U, 0x3c599fcf3d9aa500U,
  0x3d92b7f0bdc033d1U, 0x3b8cd6f2be27e4a2U, 0xbdb4f153bd84a54aU, 0xbdab4ef73c48271bU,
  0xbcbc31d23a44aa66U, 0x3b6bde6d3c67ec4bU, 0xbdf2c39cbde5418aU, 0xbc2c5ac73c926f05U,
  0xbd46368f3cdc5a97U, 0x3c7d13083d9d4d9eU, 0xbbc59bd83d82a571U, 0x3d501873ba8a4bf6U,
  0x3d9ab934bd9e84d2U, 0x3e07c99d3e0ef4dbU, 0xbd23e911be036f18U, 0x3dc836133c085d8dU,
  0x3d452d1e3d54dd39U, 0xbde1882a3dc4e248U, 0xbe0d18d13c51290dU, 0x3e17a0bb3da448c1U,
  0x3d59712a3d8b0773U, 0xbd269c02bd4f72dbU, 0x3dacade03de49abcU, 0xbde94d7cbc9f6eeeU,
  0xbddb51143d3c8957U, 0x3dfcf7323ddb1482U, 0xbde6d548bd656928U, 0xbe0b6f503dceb9a2U,
  0xbd30a97f3d19ab26U, 0xbdeb1e79bb01c574U, 0xbceccdc3bde0d7faU, 0xbbb21b943d909b12U,
  0xbd273bd4bdc846b6U, 0xbe0647163d2cfd23U, 0x3dc1736b3ce5319aU, 0xbdfe99ad3d7a3a80U,
  0xbd2fad68bcf4c501U, 0x3d9a9f803dda01b2U, 0x3d7125753d2d731fU, 0xbd6e8975bc92e7c1U,
  0xbd87677dbd961584U, 0xbd44df98bdc8281eU, 0xbd02323dbd7a9e37U, 0x3dad61ae3e1138cfU,
  0xbdeceb3ebdfa26d5U, 0xbd8cd2debc62ab4fU, 0xbddb67a43dd5c82bU, 0xbd81c7743da74fb9U,
  0xbd70e3233d8a442aU, 0x3de25a353e1780e9U, 0x3d3b9b54bdabafc9U, 0x3da92dfdbd9b2d54U,
  0x3ddcb3333e0ef5afU, 0xbdd07dce3db5ff3eU, 0x3d45086f3c887706U, 0xbd833bcabda84b77U,
  0x3db2da183daf1055U, 0x3dd3a74e3d329fdfU, 0xbdb7e0bb3d5b0222U, 0xbdbcd45abd00824cU,
  0x3e0ee22ebdeffbd2U, 0xbcdb40ed3de59256U, 0x3cae2cb33bcfa407U, 0x3d1fa036bdc7cadaU,
  0xbd8174b13df020aeU, 0xbdebc0533d7382cfU, 0xbcaa378d3e13e33fU, 0x3dc9f2a13dd47b66U,
  0x3d86d883be049072U, 0x3c86c2363d91fb15U, 0xbd8b5cbd3d98254bU, 0xbdac651cbdb1c932U,
  0xbdb37ce2bd5f00ccU, 0x3dce6ef7ba6021b3U, 0xbd759cde3dcab3d9U, 0xbba1c59fbdb92e50U,
  0xbd97ea20bcbf79a8U, 0x3c8e6318bd750687U, 0xbd9177dcbd161fccU, 0xbe193ca6bc770562U,
  0x3de1dc463d874069U, 0x3d8964e7bdb7d774U, 0xbdba12033d71bd88U, 0xbda91d223d80044fU,
  0xbd357886bd9a7d47U, 0xbdda55123e048bfbU, 0x3c8b5cebbe0a69c9U, 0x3d0100fabd6615daU,
  0xbdeaf51fbdd2a71cU, 0xbd22d7b33db5550fU, 0x3dd313dd3ddfbe84U, 0xbdca61c6bd90461cU,
  0xbdd96158bddef7c4U, 0x3de952c03d21a9b2U, 0x3dde1183bccfc713U, 0xbc9c7b943c823605U,
  0xbd86e3db3d875065U, 0xbb23c06a3df7f61cU, 0x3db2076fbd1fab86U, 0xbbb8c98e3c45e315U,
  0x3c1d8b483cfcccbcU, 0xbdd998e43d41ae5fU, 0x3d0a3b96bc92b3beU, 0xbd506c6e3db771aeU,
  0x3d4317073d9ba3c7U, 0x3c9cadf8bd1ea837U, 0xbd13d946bdae6397U, 0xbd52327c3cbac08cU,
  0x3d9268dfbe077755U, 0x3ce56ccdbbb3aeb2U, 0x3d737314bd8d5f09U, 0x3cd9404e3bfdab5dU,
  0xbd69f6f73e11731cU, 0xbcf40e5d3e282af4U, 0x3d16fc51bc2ac666U, 0xbd45292a3dd67753U,
  0xbd75afa2bd720422U, 0x3c61d00bbe2e3887U, 0x3dbb74013df64ae7U, 0x3e06e4c0bcd05e17U,
  0x3d2f90ea3cfe3d14U, 0x3dbd2f193cfb0089U, 0x3aa9f641bdb768bcU, 0xbdc41050bdc617c6U,
  0xbe067d3dbdd68dc6U, 0xbdfb77c9bd626a14U, 0x3d7bbac1bd247103U, 0xbdec1abd3d4c9597U,
  0xbd3eac4b3d90a70dU, 0x3e10581f3dc84373U, 0x3d30ce603d879c05U, 0x3db2760dba943a6eU,
  0xbd5eaa4a3ce0f68bU, 0x3d90f2763cbda5c2U, 0x3cc20ff0bd94f494U, 0xbcd800de3dc0eb55U,
  0x3d8e19663e1553abU, 0x3dcaca8c3e145972U, 0xbdc549f2bd7ef3c2U, 0xbcb168cbb9e1e90cU,
  0x3dcba5d5bb8093f6U, 0xbda8a117b9dea2dcU, 0x3d69d24abbe0aef5U, 0x3d958e08bd317bedU,
  0xbcc76efc3bfa470dU, 0x3c98f0e03d317dfcU, 0x3dc62800bdb42eaeU, 0xbc549ee2bd75d835U,
  0x3da05dcfbe0e472dU, 0xbda1c95cbd4927ccU, 0x3cbbdef1bd226966U, 0xbd2c3a24bdd75584U,
  0xbe2ba80b3da90f49U, 0xbdb058203dfaeed0U, 0xbcc214d03dc3fbbeU, 0xbddbf9c8bd3159d0U,
  0x3db6d230be15de9eU, 0xbe18c8863dc50412U, 0xbddfda313d77c619U, 0xbcdb3930be0ceb9fU,
  0x3dbf8f05bd2b69c9U, 0x3d398c0f3e1f80cfU, 0x3ccbe34bbcfd3b57U, 0x3c728845bcb6e224U,
  0xbaeb5da5bda1ec5eU, 0x3d5c0d3e3d8e489eU, 0xbbee8d983e01dc1bU, 0x3caa58633d8806c0U,
  0xbd8323c3bde65c49U, 0xbda9723ebdce3e05U, 0x3cc22f3cbdd39864U, 0x3c7740863dc11b23U,
  0xbd3dcd043dfbce91U, 0x3d973f643d71d3e9U, 0x3af977233dab8025U, 0xbd8cc8173e10b863U,
  0xbdad2e013d3610c7U, 0x3d00fac3bce716adU, 0x3e1fac05bd0d4e12U, 0x3d34c305bc3a755bU,
  0xbdea12403dcb87d0U, 0x3e17266ebda02866U, 0xbd86eabcbd45a745U, 0xbdda03dd3d47d7a5U,
  0xbd903cef3c065d40U, 0x3dddc822bcefef95U, 0x3d9eb445bccf9b3dU, 0xbdd02df83c638030U,
  0xbd3320e6bda5dedcU, 0xbcf2b9b9bcce8f09U, 0xbd2cafacbd606bc0U, 0xbdbc37b93e0304a3U,
  0xbd0e9436bdb172b6U, 0x3dc9cce7bdc063d1U, 0xbbffe09ebd85401aU, 0xbe0a54e1bd7ab9f1U,
  0xbd336a1b3c98f169U, 0x3b68b317bb9276d4U, 0x3c51fbf23cb732d6U, 0x3db2b6b53db33d89U,
  0xbd1cf52abb8e8f06U, 0xbd931a64bdcce8d7U, 0x3e1cbb223cd348f6U, 0xbd618654bdb9159bU,
  0x3bf9d4e23db471c9U, 0x3d3f45723e0081a5U, 0xbc37328c3e02fdd5U, 0xbb1bc64c3d8e2e11U,
  0xbe04e48b3d8e9b9fU, 0x3cc450fe3cd2a8b8U, 0x3b0de553bd5f9bb8U, 0x3d2905bd3ca55a3eU,
  0xbe4f86abbd78a95fU, 0xbdb29576bc394a41U, 0xbdd09edb3de480d4U, 0xbdb68958bccdc417U,
  0xbdb0cee3bda99df0U, 0xbd861acbbe0afb11U, 0x3d4e5387bd81a0faU, 0xbda467c43d54e7d5U,
  0xbe0249a03dcda38fU, 0x3d883c3e3dd00cb8U, 0x3d3d522dbd08b577U, 0xbddb1e373d484b81U,
  0xbdbeca7d3cae938aU, 0xbdd980ebbd8ac525U, 0xbd3c916ebdf49fb7U, 0xbe07ad483ca61fe5U,
  0xbd9e39ffbdd3c7acU, 0x3cdf0f6a3dd899f3U, 0x3dab6805bdb17e13U, 0xbd43cfdf3de60d45U,
  0xbd9d96e1bd70ea8aU, 0x3d0a73a53db075a0U, 0xbd9b99a5bd5326b6U, 0xbc208de73db51f26U,
  0xbde93b08bc9c335eU, 0x3dcb83a33df8499dU, 0xbd0f7db1bdb605e3U, 0x3d762c2e3dfa18feU,
  0x3dd8665abc623dbfU, 0xbd6866cdbd8ee4e9U, 0x3c1ef26abca90eeeU, 0xbcbfd3953c7a7e41U,
  0x3c89316a3db936ebU, 0xbd94f20a3d28d6ddU, 0x3db23f71bca829a7U, 0xbd94f9ba3dbd09e0U,
  0x3d82ff78bd16685fU, 0xbd3e0544bdb5d85dU, 0xbd9687443db6ef38U, 0x3d0a2a92bcdf229bU,
  0xbd506631bdde8f92U, 0x3dc992e03d6ca301U, 0xbd93258dbe0a93fbU, 0x3c5dba3fbd560435U,
  0x3b8c15043be006a4U, 0xbc46e719bc953116U, 0xbbd366cfbe013da2U, 0x3bbb5acabda427d5U,
  0x3dfa6cf2be07c520U, 0xbdf3c6003d019af9U, 0x3de52bb8bda763a5U, 0xbd83bdf4bd455b91U,
  0x3e093a843d1642c5U, 0x3d119f7ebe206c30U, 0x3e1ee9893dc7bce6U, 0xbdb49eb73d45aa21U,
  0xbc7910d83d697db0U, 0xbbf243aa3d3a5f15U, 0xbdb2296ebd60543dU, 0xbd653ce43e034b1dU,
  0xbcd9e9d4bdff8a28U, 0x3c8d9a11bda8d1e6U, 0x3d349759bdab6128U, 0x3cf7e6023da6d5a4U,
  0x3d9ff6113ddfdc8eU, 0xbdc788df3d5a4201U, 0x3c6674d23d79f2a6U, 0xbd6c83e0be0bf332U,
  0xbd4a0d153d7c73efU, 0xbd0834f53d9c9efeU, 0x3dbc60063d3c2928U, 0x3c92bc923a800692U,
  0x3e00ed8dbd09efa5U, 0xbd70fea5bc0f78e5U, 0xbd2675bb3d71e297U, 0x3daa728abdbdf832U,
  0xbb5b1dffbb96532aU, 0xbd4d6233be1ed4d1U, 0x3dc74413bdc1f043U, 0xbd7b5dcdbd3be556U,
  0x3def22e23dbeacceU, 0xbd9a4409bd31e0bdU, 0x3d82e9ff3d2e5da3U, 0x3d8217f03de6d02bU,
  0x3d9f3ec13d944d0dU, 0x3c39b1c03ccbcfb2U, 0xbd1e392abe259c1eU, 0xbdd00859bdab4608U,
  0xbda6fbe83dc526daU, 0x3d8726493d3eab8dU, 0xbd3c590d3db4bd33U, 0xbd91c8293d380bc4U,
  0xbe0ce1723da4ffefU, 0xbe200f10bd8a361aU, 0x3d010ed03cea6b68U, 0xbcd7f4a2bc12b190U,
  0x3dbc8d913d8c98a9U, 0x3daf96573cc7397dU, 0xbdd41209bbc08271U, 0xbe1310623d5d60edU,
  0x3c48ff77bda4ed65U, 0xbe2366ff3dd07712U, 0x3c8b483f3c1f2db6U, 0xbb8cc7093cf42828U,
  0xbd6257f7bda72af9U, 0x3dc6c9113d951c66U, 0xbd7347e7bd5381c2U, 0x3ba6ecbebc1e7a8bU,
  0xbd5092d2be0f76e9U, 0x3d998d2fbda4569cU, 0x3cb6bdc6bd7367c1U, 0xbdfc2b9f3dd2c3b2U,
  0xbd898203bdaee15eU, 0xbd970fd53d08fb03U, 0xbe1715323c2b2cd4U, 0xbd04bce53cc54062U,
  0xbce2a0a3bda53c10U, 0xbd917d833dd071f0U, 0x3ccbcd5f3ceda421U, 0xbd15cc513d0f98beU,
  0x3cb818cfbca42c2cU, 0x3a8885563cd9ee4eU, 0x3da14378bc3a7b32U, 0x3de5e51dbdf81a46U,
  0x3b0fdc253e0b6be4U, 0xbd3f32bbbdfcdd24U, 0xbda9f30dbcd7a1c8U, 0x3ceb0fcb3d4c30f8U,
  0x3de613cbbd6b5aaeU, 0xbd3cf533be01a774U, 0xbdb2d8d73dbacfe8U, 0xbcdf1a3bbcd98529U,
  0x3b246b3dbdf892f3U, 0xbc24933a3e0280b2U, 0x3def0f40bdeb024dU, 0xbe08be883cb48fe4U,
  0x3d162b3b3e082428U, 0xbdbf38373cc00581U, 0xbe277e16bdea51b9U, 0x3d3301e1bd9acc4bU,
  0xbdb67d923da1cc14U, 0x3dcdebfb3de16d6bU, 0xbe2144f1bc8eae3cU, 0xbb9354f0bd454f23U,
  0x3e11fe8bbca432c8U, 0xbe0fe4013db98ddeU, 0x3cf4a5253e177e2dU, 0x3d9b0264bce28da1U,
  0x3e01653bbd88d5d2U, 0xbdeefaf0be35f518U, 0x3d156f3ebddf0d60U, 0xbdff6e553df77719U,
  0xbd5dc1f13cb75c1fU, 0x3dac8345bdba6119U, 0xbdc6601c3c81ea10U, 0xbd27dee03dac397dU,
  0x3d5e5474bda82148U, 0x3dad0806bdfc9b17U, 0xbe0a9a233c5edad4U, 0x3d1e60d5bddb5610U,
  0x39ab3a51bcdc559cU, 0x3cf4bb283d96d0e7U, 0xbe087e263d6ed861U, 0x3db68aeabd6d0551U,
  0x3d267d2f3c6cfe9fU, 0xbbf57dbe3bf31422U, 0x3cf1bbbe3c897279U, 0xbd0e112b3c1b5e29U,
  0xbaef9e6fbda84844U, 0x3c676266bc80724eU, 0x3de029c03cc41ae8U, 0xbde5d972bdbb9757U,
  0x3d1fdf943b82788aU, 0xbe1c3f7c3d6ea22eU, 0x3bd0d68bbd4b76c0U, 0x3d95055c3c23d558U,
  0x3d7322b3bccc30c4U, 0x3d268f36bdc0eb88U, 0xbcb4cb5f3cd9cd79U, 0xbe0a27833d23b1c6U,
  0xbe0ee215bdef7b12U, 0xbdb8d9c1bad50624U, 0xbd82d7e53d201037U, 0xbdd13d153c50ef48U,
  0xbd266d5e3d924bb4U, 0xbd82d3a5bdd47b97U, 0xbd529987bc006f84U, 0xbdcc1f2bbd1bbf4cU,
  0x3d01e1e13da71a80U, 0xbd4fcb543e143f7bU, 0x3dfed46fbdd13eb2U, 0x3d6140183d88f321U,
  0x3ca73d6abc86db17U, 0xbacf20febdb252deU, 0xbda01e143d66b051U, 0x3d30129c3d39bd4aU,
  0xbcd1af90bdb599a3U, 0xbdcbe969bc973a56U, 0xbdf01a7e3d4d49e6U, 0x3e0494f13de56f9aU,
  0x3dd90db7be23da6eU, 0xbc68e3233ca9479eU, 0xbdf6d38cbd5eb999U, 0xbdcc309c39ba8bc0U,
  0xbe0a21a03c59bb43U, 0x3c94b81cbd0fa4d7U, 0x3d0bb90e3cc76d34U, 0xbd68a0be3d5a3b37U,
  0x3d5151303d93f7ddU, 0x3bba20f4bc87be5bU, 0x3d91abe53d91b529U, 0xbde77ba73c6a99f3U,
  0xbc12ec5a3d7463a2U, 0xbd8a0d3bbb4bc5bdU, 0x3c5864b73d019c70U, 0x3dc1ae17bc7009d4U,
  0x3bdb2740ba4b0bd9U, 0x3d461b4bbd813e50U, 0x3d50d4b83e21be02U, 0xbe050fbb3d5c2bcdU,
  0x3d6609e8bddce47eU, 0x3d6552e9bca52897U, 0xbd3052b5bd8c128eU, 0xbce0cce7bd40dda7U,
  0xbdbe2f2bbde5cac4U, 0xbe0280253b33bb81U, 0x3dc0a4ecbd027b01U, 0x3dd6b23f3dcc374fU,
  0xbd42fd43bd2e737fU, 0x3dbb26a6be054015U, 0x3d2fa2be3da92a93U, 0x3c1d079dbe097c6eU,
  0xbc5d64323d81ef47U, 0x3d8fa67ebd5e42f8U, 0xbd9b64efbe21a45aU, 0xbdb1eca53d2de6d3U,
  0x3d51331c3da5ac02U, 0x3ddebeee3cd6d2f6U, 0x3d0cd4ff3d15f67fU, 0xbdd8ae4e3da705b9U,
  0xbdba893e3d14bd4aU, 0x3d39ed563d1cf823U, 0x3dd3b8ff3de32126U, 0xbcd63417bd86304dU,
  0xbdea6754bd9889baU, 0x3e02299e3dab0055U, 0xbca7b6c43ca20793U, 0x3e033a9d3d9281b4U,
  0x3d089f64bb54e59fU, 0xbd43008e3db264ebU, 0xbd3923e93d95ca83U, 0xbc6b334abd1c98beU,
  0x3ced79aabdfdc7c0U, 0x3da8f4ea3c476338U, 0x3d8db8bc3caea8dbU, 0xbe071792bbd3f309U,
  0xbdbac57dbdd42588U, 0x3baee55b3dc1ee76U, 0xbbca7efebc33684aU, 0x3d9fef153de277edU,
  0x3d0bec623b2de170U, 0x3d27e0023da89017U, 0x3d984efabdf8e7ddU, 0xbda149e2bdaa2e26U,
  0xbdbe1120bd643e74U, 0x3cbdac363d16fe37U, 0x3a400bec3dee3cb2U, 0x3d079f18baa69727U,
  0xbe1f3bbdbb807d7dU, 0x3da891d9bc4a93f8U, 0xbda449ebbd31f717U, 0xbde24cdbbdbfe015U,
  0xbdb740c23d2eb744U, 0xbcd89f9f3ddef1acU, 0x3d85e15c3cae6fbaU, 0xbd1b1cfb3d30b57bU,
  0x3d8b3930bdb544daU, 0x3a7a30173c4d2b7eU, 0xbc663015bd882438U, 0x3dbe50f0bb34dc9bU,
  0x3de6accc3cd78167U, 0x3d3cc3213d9f6965U, 0x3dfac30bbe09aac1U, 0xbe1d22febde26ef5U,
  0x3dfc6d04bd498c16U, 0x3b31c9d6bdf5b84bU, 0x3d23cd54bd9b1219U, 0x3d8b4d4f3dd2ba70U,
  0x3d8127003db563caU, 0xbce6eac9bd27442aU, 0xbcec437cbdb8632dU, 0x3db2f7dc3daaa903U,
  0xbcb3de30be0219e2U, 0xbe0153863d569b13U, 0x3bb273363cb4c425U, 0xbddc88cabe038851U,
  0xbd8953fb3d6c5bc2U, 0xbd2111c6bc1da376U, 0xbc5c78c9bd81d190U, 0xbdf9f9e93c40da89U,
  0x3d4acc8cbccfee98U, 0x3e1edfe23db9f84fU, 0xbb2bd1553dcad97dU, 0xbd60a3c83d3c2411U,
  0x3e00f1743d8a0f97U, 0x3dd168f4bd005d5bU, 0xbdddc6aebdb79bfdU, 0xbdf7670dbd1f3c05U,
  0xbdde702d3cad7a5eU, 0xbd71db95bb6b7716U, 0x3d20f86abd32d129U, 0xbdcb2537bd09a167U,
  0x3c508ab6bd9befbdU, 0x3d179185bd1bfecbU, 0xbdf72273bd969cfbU, 0x3d2f3c07bd0d3055U,
  0x3d454fc7bdfb1c76U, 0x3cc7e7383d61ddb7U, 0xbdcdfb2cbd80c1cfU, 0xbce6e7e9bd8f113dU,
  0xbc226a31bdb1927aU, 0xbd0432c63cfe8698U, 0x3da32c2bbdfffe1dU, 0xbded8073be127ad2U,
  0xbbdcc26bbd0b1040U, 0xbd25f3e53ccff6a7U, 0xbc96e9b83d369a51U, 0xbd1167b4bd86f258U,
  0xbdefecaabc947b27U, 0x3de2b605bd3a2cb3U, 0xbdfe0f05bca415dbU, 0x3dc4e2673cd16048U,
  0xbc0041ec3d7cbf4eU, 0xbdc36f213e046c7dU, 0xbd84b8b8bcff901eU, 0x3c9077823dd61ea4U,
  0xbc9ed1153d9dfcb2U, 0xbdc09710be00c195U, 0x3e3dc5043d7859d6U, 0xbd7b7bf8bdfc1f5eU,
  0x3c774d77bd116beaU, 0xbdeb008bbd0bced7U, 0xbddaa114bd749d61U, 0xbda62dd5be163105U,
  0x3d5c5b453d1c9abcU, 0x3da05fde3d86ef79U, 0xbd5b37113d302c2dU, 0x3c8d13763b86f377U,
  0xbd9955eb3c8d6218U, 0x3ac999e4bdbacdafU, 0x3dd577cf3df3e312U, 0x3d91d90dbc68e319U,
  0xbe09cfc4bdad7b19U, 0x3ba4dbf53dad3cdeU, 0xbd495ce93dc43e0fU, 0x3e012aef3d6ad1b5U,
  0x3cbb666d3a0027e4U, 0xbd58475abd6bd056U, 0xbd948d2b3e0fd2c5U, 0xbdd080ebbd8174eaU,
  0xbd540b4dbc561ad8U, 0x3cbd4b49bd326ca4U, 0x3d920b943e16ed26U, 0xba8ba229bd29158cU,
  0xbd9472c8bdeed82cU, 0xbc987dbfbd1d9d7cU, 0xbe27d9403d54dd80U, 0xbce7bd56be0bea90U,
  0x3d3da83abdd96702U, 0x3db346db3d37b16aU, 0x3dadc0453d6bcecfU, 0x3cffe1e6be0a9dd7U,
  0x3d8d57f0bd0ce353U, 0x39b699733d9b2a32U, 0x3c85a102bde47660U, 0x3d5c0d5dbbd8e006U,
  0xbe1cb175bd3ff0adU, 0x3dcd8461bdafcefcU, 0xbded7d083a4627cfU, 0x3dcc4d39bdfc4529U,
  0x3dc502ba3dd3f9edU, 0x3d04d3a83de3837aU, 0x3d413f00bc70700aU, 0x3d54fe703d9c0f12U,
  0x3c0ae8f83d436ac7U, 0x3d6fd62ebdca1de6U, 0x3dce2fa43e254eb7U, 0x3d487b8dbd7552cbU,
  0xbc09532abe1210d9U, 0xbca441423c98fe2aU, 0x3cd28fc7bde57a4bU, 0x3dbff852be1dde8aU,
  0x3ccf2f6ebd4b3e80U, 0x3c02c7c8be0ac937U, 0xbe2ac02bbdcf0be9U, 0x3d40fff6bdc7f9eaU,
  0xbd8af51e3d6b335bU, 0x3d8f008ebe0175e5U, 0x3cc105e8bdbc0c0fU, 0xbdad56fe3d52dd5dU,
  0xbe18cdcbbd083ce4U, 0x3b8a43c03d30736dU, 0xbd9a5f17bdc76f99U, 0x3dd1407d3ca60885U,
  0x3c2c5e0cbc366e87U, 0x3dc24adfbbc3658fU, 0xbe033b993d13e832U, 0xbb500667be016405U,
  0xbcba0d5d3db6c891U, 0xbcc8e1b13d564c1aU, 0xbcdf7da23df67c94U, 0xbe0ec2b4bd81d0dbU,
  0x3df85aff3d9184a1U, 0xbb074bf03d97d53bU, 0x3c90ac66be03b3bdU, 0xbe0dd608bde18e02U,
  0xbd71588cbc472e66U, 0x3d737c6f3d109fbfU, 0xbd69ef8bbd88dd86U, 0xbc6fb6ff3d78181dU,
  0xbde6d36bbcf97e07U, 0x3a0318f63c9c3285U, 0xbdcc73f7bd101944U, 0xbce25d2abcef07c1U,
  0xbd2202efbe04bd55U, 0x3d8e3c083cc64b2cU, 0xbd9e289cbd8cbfe4U, 0x39bd63e1bd9b8fdbU,
  0x3cc057203d8f17f9U, 0xbd523da8bbfbb40cU, 0xbd696675bd9d1e19U, 0xbda1523ebdc2a51bU,
  0xbdcfa85f3d554ca8U, 0x3d3ba5ef3cbd198dU, 0x3d5b87923e1e1b8fU, 0xbdd1de21bdc8d906U,
  0xbc912be0bd3c9138U, 0xbdb5c38e3b484e06U, 0x3dc4a99bbda3bb7eU, 0xbd7637a93dc73cb4U,
  0xbd002c6abd6e610dU, 0xbdd0d15ebde4e6d7U, 0xbc71c1833d949953U, 0x3b50982dbd7d37e0U,
  0xbd83c051bd79266eU, 0x3cbd5d803d51975cU, 0xbc5ed481bd317302U, 0xbe0c35be3dbfc966U,
  0xbc44a82a3d94369fU, 0x3dbd2d9f3dcc4ff6U, 0x3de6831bbd847291U, 0xbdb44ed6bb9dbc5bU,
  0x3de328983dd476b9U, 0xbdcf4c9cbd5e4239U, 0x3cfe2ab6bdd01524U, 0xbcf57231be025c28U,
  0xbd0c6039bd95adf9U, 0xbdd553f63ddcb64bU, 0xbd6976873e148e25U, 0xbcc5463dbdb1608bU,
  0xbd54b2b4bdc75e38U, 0x3d3a281fbd14faacU, 0xbd981a39bc8e9112U, 0xbdc6a29a3d54d554U,
  0x3dc0b2673c631c50U, 0xbc852bd9bcead1fbU, 0xbdf251813b7630ecU, 0xbe1ed741bd2a44bbU,
  0xbdf19418bdd3af84U, 0xbca3b913bdcd888dU, 0xbe02c775be029183U, 0xbd3380843d6f88d9U,
  0x3dd148e43d432360U, 0x3cb63a0a3c91ea8cU, 0xbd8f7006bccac53bU, 0xbce55dc5bc65be12U,
  0x3db0f7eebcf420f7U, 0x3c1a1b293d8e89d7U, 0x3dc3fe483de5b802U, 0x3df9fc3a3d86d4d4U,
  0xbe00f3ac3c6e2385U, 0xbdfb08f13d0d5fa3U, 0x3db84054bd89fc5aU, 0xbd44e11fbdec6837U,
  0xbd2d8936bdc1be67U, 0x3d282f63bdf2b7e6U, 0x3d3ac914be1409f0U, 0xbd43815cbbab7d44U,
  0xbd3dc4b53e1aa1abU, 0xbd4cef613dd534f0U, 0xbe05d0bcbd1940d5U, 0xbe04da7a3b995798U,
  0xbdbd28f83d97e089U, 0xbd9b6d083d991e4eU, 0x3b65b2adbb2d7d78U, 0xbca89d1f3d80d827U,
  0x3cd7664ebe0d2974U, 0x3e0aa5163d25d87cU, 0x3dfa5e37bdab2419U, 0x3cc2fed23d7efb57U,
  0x3dbe3350bded1f46U, 0xbd7d42483d49a47aU, 0xbd47e4cdbda14f1cU, 0xbce1da4e3d63226eU,
  0xb9b32c1a3de35c97U, 0xbd4dd340bbee9e99U, 0xbd6dddbfbd904791U, 0xbcc67467bd12598aU,
  0x3dab52b6bcaa1a46U, 0xbd3efbc9bd3e996fU, 0x3cafe599bdd1b426U, 0x3dd365e33d861731U,
  0x3dcf20123df04b1dU, 0x3d74f3ee3dadadd4U, 0xbce0743fbdae1b11U, 0xbe05e59ebdad66e4U,
  0xbd30eb4b3d0e3777U, 0xbd5d782ebc954f06U, 0x3df24886bdfd9dcbU, 0xbd1dff8b3cd356f6U,
  0x3d0b16143d72e83cU, 0x3dabf9a03cf769f7U, 0xbd3be04ebd3b8434U, 0x3d303227bd2ee1aaU,
  0xbe0a5890bd2a634fU, 0x3d5f3a483d0f067dU, 0xbd38d6afbdff6c92U, 0xbc358efe3dc0c1d3U,
  0x3d92daec3c804e68U, 0xbc9af9e13dd0db47U, 0xbdc887cf3d5cb34fU, 0xbcdbd7d6bd46a599U,
  0xbdac25993d2cc84fU, 0x3d772c18bd6ddd77U, 0xbdbc05b7bd0ef2edU, 0xbcb05cde3dd25463U,
  0xbc8a5b6b3dd89ecaU, 0x3de304b73d5149b1U, 0xbdeabd54bda93edfU, 0x3ca73bacbd0cb3cfU,
  0xbc7ecc94bdfe83c7U, 0x3e2747a93e1b7f97U, 0x3a3b11083d74fc3bU, 0x3c08f97c3df09500U,
  0x3ddd358bbe116b85U, 0xbd90c3d3bd3e42ffU, 0x3c935975bc93de9dU, 0xbdaf87953ddee3a8U,
  0x3d9e40d53ca91bd6U, 0x3d812b1abe195023U, 0x3d8d3c47be183d77U, 0xbc6a83633d9ce8abU,
  0xbe22800bbc771b2aU, 0x3d9b3a9ebd979c27U, 0x3d68d7a2be14d064U, 0x3db5cf603b6f7015U,
  0x3dea875e3dc87816U, 0xbce58cc63c943074U, 0xbb98a2ebbcc09573U, 0x3d84abddbd6b2997U,
  0xbd98c2eebcfa9887U, 0x3d9edd283dd64afbU, 0xbdbb09003dc00930U, 0x3d520f7fbe1886aeU,
  0xbddf02e13d306c91U, 0x3dbe3ebabd7cc11aU, 0xbd95e5333da1df7aU, 0x3e1485c0bd35ae6bU,
  0x3c8f8ebdbcd51c60U, 0xbd0047e3bd92a989U, 0x3da343723d6c7c78U, 0xbd516acbbd14d278U,
  0x3cf4aa83bdec57a3U, 0x3b463d7f3d8b2295U, 0x3da51e4b3d1be0feU, 0x3ce1873abe136408U,
  0xbd3b6509bd170a62U, 0x3d9c421abd1602f1U, 0x3d3c1e893c9b4147U, 0xbdc61056bde2f39aU,
  0xbdb9e6173dcc57bfU, 0x3de671a93dd3b8a2U, 0xbdaa665f3de3f011U, 0x3d94b22a3d2b2482U,
  0xbbe269d2be24acd0U, 0x3d9fd1cfbde88c92U, 0x3d8c7fcb3da18cd1U, 0xbe010fa6bda763adU,
  0x3c0ae6b23d932060U, 0x3da77b933ca2a522U, 0xbcf1b68c3c96ade9U, 0xbd23cf04bcec357bU,
  0x3cef56eabd8a9a13U, 0xbd43c1e3bd1a3446U, 0xbd8c5f1bbd4d28d6U, 0x3db06e8b3dbedf61U,
  0x3de0adffbe18c503U, 0xbe0647f9bdd3e762U, 0xbc90ecaabc978a18U, 0xbb2ce9e0bcea519dU,
  0xbddc34adbe293c6fU, 0x3d19f1a63ca87fd4U, 0x3d360dd3be2cfe3eU, 0x3d1a8cc03dc2d22aU,
  0xbda25890be01b5a8U, 0xbdfa57aaba94524aU, 0xbe032ee7bdc08c86U, 0xbd218c4dbdd8b933U,
  0xbe07a7d1bcdbb49bU, 0xbc1adb033ba8d2a6U, 0xbdae09c3bcb7427aU, 0x3d24a1903c0dfe0bU,
  0xbd83eeadbde10db9U, 0xbd8663dcbd46cb18U, 0x3dafe63cbdd6e30bU, 0x3d0dbf453bded204U,
  0xbdb512cbbdacafd4U, 0xbced241f3d8cfcc0U, 0x3d925062bdf565d0U, 0x3d8fa10bbdfd588dU,
  0xbcd7ffa03da1fe84U, 0xbdfd04fc3d430f0dU, 0xbda1fca9bdb3972aU, 0x3dbea1b83d9d36d3U,
  0x3da42955be04ea2eU, 0xbdc4df663d942fb6U, 0x3dc8380c3bad0de3U, 0x3e0fef91bdfbd99cU,
  0xbe028a2cbd389abbU, 0x3d5959e0bda69c63U, 0x3cc1274fbd12b89dU, 0x3dc033fb3d709f25U,
  0xbd67311abd9b5a42U, 0x3d629645bd9f80e3U, 0x3dcd6a2cbe1b84ceU, 0xbe15a235bd0903dcU,
  0xbd8a2e383c4f8eedU, 0xbde342f8bcee0ebeU, 0x3d381cacbdf2ce81U, 0xbd9a124abd999420U,
  0x3defa1ae3d411aa8U, 0x3cd0b9cc3dfb81eaU, 0xbcfc678cbd775232U, 0xbc860fd9bd194266U,
  0xbd91c08e3d607beaU, 0x3dfeb5b53b7f5924U, 0xbda94f483dcf9abeU, 0x3db469fb3da02abbU,
  0x3d8fa5b83bc09eb8U, 0x3dca5eb43d7f36acU, 0x3ddc45e1bcacee65U, 0x3d9270e9bdac2cf9U,
  0xbd99c2213db80a87U, 0x3d94c3ca3d0bad21U, 0xbcd5cf593da8eed4U, 0x3d706a2f3d8fe2a0U,
  0x3cf2226ebdd43e34U, 0xbc09e4c13ced9b60U, 0x3d6be356be0441c9U, 0xbe04fe86bdb01cefU,
  0x3d8420443dabdb98U, 0x3dbfca473dbe8356U, 0x3ddf582b3d9cd789U, 0xbdab3ead3d8e1e4fU,
  0xbdb5fe41bdcd38e1U, 0xbdf601c8bd6dee37U, 0x3dcad3ffbdd6f252U, 0x3dc5550e3cd84db2U,
  0xbdd9c77a3c155b82U, 0x3c8758343d862db2U, 0x3db3bdf93d0ec7ffU, 0x3dc225cd3dc9f4e8U,
  0xbcb100c93dc15975U, 0xbc10e4c9bdca970bU, 0xbdee29ff3cda176cU, 0x3dada98c3db42e42U,
  0xbe1dbfc7bb115657U, 0xbe36dae5be59548cU, 0x3ccfc94bbe0cf745U, 0x3db2d5fa3d393853U,
  0xbd5f59b9baaefe18U, 0xbd77f55c3d45669fU, 0x3d13c05cbda320f2U, 0x3c599a5cbc81be95U,
  0xbd2b513bbde10d2dU, 0xbdeea6a0bdc67604U, 0x3cf592a03d885063U, 0xbd4a05a43d5ab230U,
  0x3cb8a1093dc3590fU, 0xbb2f2a1b3d9ea4a1U, 0x3d8db7babcdcd6d4U, 0x3e149e0f3d254b01U,
  0xbe227749bdb7a48eU, 0xbdf513d43d8753f6U, 0x3dad2cf3bb820521U, 0xbe311a81be01b3f4U,
  0x3d7deb613d492912U, 0x3d976c08be0ad82eU, 0xbd833174bd08bd88U, 0xbc831b3c3d5140d5U,
  0xbe2cccb7bd83cd86U, 0xbe3908bcbe2241e6U, 0x3b934eaebe182dbaU, 0xbc992170bd8a396cU,
  0x3da888b23e16964bU, 0x3d87340a3c2e5d68U, 0x3cc44bf0bcad01c7U, 0x3cca7406bd2e0d0bU,
  0xbe1644913c3d35a7U, 0xbc77268e3d5c577dU, 0xbd0f21bb3be89e69U, 0x3d0e45213cf6544aU,
  0x3d4863e73dfd3446U, 0x3b40e66c3e086d1aU, 0x3cf8ec723de59c9fU, 0x3daddae13e279eb6U,
  0xbcaeda37bdf3b9baU, 0xbd1549cdbdcdf118U, 0xbd9a257fbd877a27U, 0xbd52146f3ca01b8aU,
  0x3e18eb0abe1cf705U, 0xbe0baa4b3b58c30cU, 0x3c44288e3e13a462U, 0x3e0b1bc83c2ead22U,
  0x3d5b30b4bdd381fcU, 0xbe17de293c02a7d2U, 0xbd246f703e057dc2U, 0x3dcee25ebdcd9585U,
  0xbd5e83b93ce6ff1bU, 0xbbe19b50bd916d92U, 0x3da87e56bd139a6fU, 0x3dc93dda3d9228faU,
  0xbcb5ea873d7b1650U, 0x3d85369a3d961185U, 0x3dd4854bbdc59489U, 0x3c4d4e97bbad5697U,
  0x3c6dfb9b3e02a13aU, 0xbdba52dd3d2f31feU, 0x3dd411373dfbde5aU, 0xbd594c74bc8bd4a1U,
  0xbda53cfebdd36831U, 0xbcb83ccdbd8cf46bU, 0x3d05ddc8be050acbU, 0xbe251bde3d951a66U,
  0x3d2b3dfebd198c9bU, 0x3d8eb463bde4ee04U, 0x3d34e83fbd868caaU, 0xbd8287dbbdbb8feeU,
  0x3db67f763d9d82cfU, 0xbcae2cbdbc9bf68eU, 0xbdd26e92bcb226b6U, 0x3d9775043cec37f6U,
  0xbc6739a73e1f492fU, 0xbd8de210bd3fe56bU, 0xbcf914c53d27492cU, 0x3b7e856cbe022dc1U,
  0xbdaf9598bd5d3340U, 0xbd9cda593e051c4eU, 0xbd84474d3dd982e9U, 0xbdb74991bdd3096eU,
  0x3d915cedbda1ee59U, 0xbd9bbea7bda8711eU, 0x3c8b4b64be21206aU, 0x3d9dda6fbc58bb6dU,
  0x3d1220dcbdba09d3U, 0x3c0335c83de95442U, 0x3dbd42533da8ef99U, 0x3d7071f2bd8849aaU,
  0x3d9c68cebda817a5U, 0xbc93cbac3dfc1932U, 0x3c5442b23c234569U, 0x3df12d87bda65c99U,
  0x3c1ff6df3c8fdb8fU, 0xbd88ca6a3dea1a02U, 0x3d75a613bd5dd5e4U, 0xbbffe71bbdecd051U,
  0x3d43c9b5bd6adcd2U, 0x3e0c29aabd749214U, 0xbaf4776fba816c87U, 0x3b55c9d6bd719215U,
  0x3c641eb43db287bdU, 0x3da5ba01bd95b301U, 0xbdf76e593e02110dU, 0x3d133c29bd004471U,
  0x3d4014783db707a4U, 0xbc138c6cbda126d3U, 0xbd8e7ed2be2fcddbU, 0x3d8f167a3def7563U,
  0xbe46cd423dea831aU, 0xbe64557bbc6dcd5bU, 0x3dc2a07abd1a72d4U, 0xbd24efd53d430c1dU,
  0x3e0c89673be15abbU, 0xbca1afabbdf36360U, 0x3d0fc3423e0d809aU, 0x3e01be9ebcfb7eb5U,
  0x3d3e9a19bd64b9f8U, 0x3caca461bd885af7U, 0xbc8fc666bdfeb75bU, 0x3be026dabe1e83ddU,
  0xbd3232363e15f33eU, 0x3d9085123c479087U, 0xbe0dd779bca27991U, 0xbdfb47b03c015f7fU,
  0xbda8151f3d11d673U, 0x3d060c7d3d13ea79U, 0x3d0dd864bd34fabfU, 0x3c004e9b3df799b7U,
  0xbc33275fbd991112U, 0x3db1d24f3dbae9f7U, 0xbe1e6050bdd08cbfU, 0xbdd9b691bd04b9deU,
  0xbc836a943e06df77U, 0xbd0d2a63bda8736dU, 0xbe3c86e83dc58a80U, 0x3d9beb43be07232cU,
  0xbc868d943c777ef6U, 0xbdebf31cbd3a3d9bU, 0x3c6fdadc3da1afefU, 0xbc09419cbdca08e3U,
  0xbc5356d3bd1752e9U, 0xbd665279bd7f0e24U, 0xbdd982bb3d014b50U, 0xbcfa0496bd895eceU,
  0xbcdc4c1dbde30990U, 0x3ca0e19dbde067e2U, 0xbdaa0ea6bc98891aU, 0xbca753a6bd21ff17U,
  0xbda7e31dbd140f4eU, 0xbc933c72bd1d3864U, 0xbd1a1f44bcecc919U, 0xbc9fee8bbcbd9827U,
  0x40614c8d40cf399bU, 0x408f1264406240e8U, 0x40455a4e408679f4U, 0x407fd178405e4db0U,
  0x405d41334096fe9dU, 0x3fa9c984405c2348U, 0x405b1c7e40ad2a2bU, 0x4104788440d83262U,
  0x407ce57840aeb7d8U, 0x4090a8f440daec50U, 0x403c520d40035cdfU, 0x402a8011409bec68U,
  0xbf511d37bf0778adU, 0xbf0c2f30bee73b29U, 0xbf380e63bf1d6587U, 0xbf0b10adbee61c0fU,
  0xbecbeac3bf171f8fU, 0xbed5d110beffcd5fU, 0xbf1bdea9bec81685U, 0xbef9452bbed9ef2eU,
  0xbf0963c7bee0ee92U, 0xbee5416abf132bdbU, 0xbed5b643bf0a889cU, 0xbf384fbdbecc92bdU,
  0xba3b0ca83c5415bfU, 0x3cf92841bd5ed982U, 0xbb59517abcb31ff8U, 0xbb4ab1d1bd5a806eU,
  0xbd485721bd118ebbU, 0x3cbaae43bc57d354U, 0x3bae86f4bb696ed5U, 0xbca242e13cdeca5aU,
  0xbcd1b0c6bc16c276U, 0x3cfd211d3d4f576fU, 0xbd479b1d3b0a2735U, 0xbbed9a043c0b9dfaU,
  0x3cbe134a3d091e31U, 0xbd3865f5bd23f2c7U, 0x3c2282583d0f05a2U, 0xbca57f68bca17eedU,
  0xbce477be3b97d08cU, 0xbd29a410bcd60daeU, 0xbd3bea1b3cd92c18U, 0xbd0581943d411eacU,
  0x3b920721bd3f5383U, 0xbcbece753cdb2e28U, 0xbd41d007bd194a94U, 0xbc963b503bcb045fU,
  0xbb2c9e26bc46e999U, 0x3d168f413d211b53U, 0x3cd255f1bb228afeU, 0xbd15201abcd4f118U,
  0x3c0a0b593c907250U, 0x3bc20a12bd0a0d55U, 0x3ae2388fbbf024beU, 0x3d1ddabebd195f34U,
  0xbd1ced3fbd12258bU, 0x3d64c0ddbbbff430U, 0xbcaa9af7bcec8aefU, 0x3d0d4053bc7c3a05U,
  0xbc9b1c82bb890f9bU, 0xbcb311d53c582d8eU, 0x3cc716fa3d052f3fU, 0xbd08aebd3d157e2aU,
  0xbd121c4ebd06fb50U, 0x3bb49d5bbc00db20U, 0xbd0133d53c5c6013U, 0x3c844c2bbbfd9cbaU,
  0xbc9cb8733c8f5c4fU, 0xbd15f477bcc05458U, 0x3cb72c36bce6a4a4U, 0xbb4c3e1abcdbbc07U,
  0xbd62a230bcb3e614U, 0x3d0c50f23d6dd86bU, 0xbcb72be8bc964738U, 0xbd4b79173b8fc315U,
  0xbc176e6e3cff4f43U, 0x3d10e3023a9dde2aU, 0x3d20ed91bd1fc5d0U, 0x3cb33f71bd305d90U,
  0x3bfdbf76bb94d50cU, 0xbc1ea092bcc508ecU, 0x3d31ef973b20e41dU, 0xbc9d3318bcf00f78U,
  0x3cc0306ebd424f77U, 0xbd59b7aebd4ba475U, 0xbd477790bd0191b3U, 0x3ca3407a3c4be250U,
  0xbca1f1023c331c17U, 0xbb2a85b6bd0c2e86U, 0x3caa032fbb51c9a1U, 0xbcc13a803cb0e51dU,
  0x3bcc8ee8bcae74b1U, 0xbd2d04d7bd08b34bU, 0x3d04d8c0bd23746eU, 0x3d466f1a3d1cb039U,
  0xbd0b69babca6a334U, 0x3cc84717bc43c3b7U, 0xbc28d7b2bd232dacU, 0x3a6a63e5bae20140U,
  0x3c0b8ec2bcd41834U, 0xbbfcd3b5bc2cc0b1U, 0xbcfaaa103c8bd382U, 0x3bda1c8539cebb14U,
  0x3c1ffe943b86eec6U, 0x3cf9c275bce3d2ccU, 0xbce0a57e3d4d3551U, 0x3ce0d76dbccf0d5bU,
  0xbc1c759e3d281a3aU, 0x3c40e18c3cf05e78U, 0xbc35f103bb6dec52U, 0xbc838259bcc1f36aU,
  0xbd209108b95ee072U, 0xbcc8db37bd004f0aU, 0xbd4bc5603cdbe383U, 0xbd0e056ebb967541U,
  0xbcbd7e4f3d09a5bcU, 0x3ad1ed53baf10e5dU, 0xbcd3ec723cb23876U, 0x3cff6790bc9304a2U,
  0xbc3e9e4fbc93878eU, 0x3a94f50ebcea8824U, 0xbc1647f33be62430U, 0xbd01ab72bd0372e7U,
  0xbd536bdebd1ba93aU, 0x3d258d66bb76e253U, 0xbc8203e93d214996U, 0x3d427f6a3d25d31aU,
  0xbd057da13d0a10e0U, 0xbd5a5976bcdf49f6U, 0x3d281b08bcd606edU, 0xbcca0ca53d22d006U,
  0xbcfa179dbd25d24aU, 0x3c800797bd56481dU, 0x3d039210bd0b2fafU, 0x3c8d646fbd14bb90U,
  0x3c1732c4bd0d8416U, 0x3be47e623bbea8c2U, 0xbd0c13893c829c21U, 0xbce852103c928f7bU,
  0xbc78114a3d1bd08dU, 0x3d26bd00bb5115caU, 0x3d483b763d0e5e19U, 0x3cc468cbbba8c68aU,
  0xbb7c347abd20e2b1U, 0xbd070733bd2ca397U, 0x3c2c93453d013764U, 0xbc87498cbbdfea20U,
  0x3d44c397bd55c02eU, 0x3ce328b0bce31cf0U, 0xbd5b7644bd1d6c78U, 0x3d01b5cc3d1978a5U,
  0x3c8bc2233c819405U, 0x3c9441f33d198a2fU, 0x3ca09f92bce7ca86U, 0xbb6c0ce9bcb30de9U,
  0x3c4b2d2d3d03cb35U, 0xbcfdc9143d27912aU, 0xbc85f114bd217448U, 0xbd46ab073d04dc5fU,
  0xbcf5c0f13c9c2273U, 0x3c1dff76bcf457b7U, 0xbb672ba2bc8d2235U, 0xbcf26f793d11b655U,
  0xbd073f12bd2a752cU, 0xbbc6dec43be8ceb9U, 0xbd22cfb23d24a71cU, 0x3c93dad8bcf70fcdU,
  0xbcbe4b583d1ed1fdU, 0x3c8dac943c9e7cf7U, 0xbd4539be3d0813e7U, 0x3cf14b743cd4db06U,
  0x3d24dfe2bc10bdedU, 0x3cb0ececbd5546d5U, 0x3bef740bbd1b4fe9U, 0xbbe03c6fbcc3a0ceU,
  0x3d162b463c0ba76bU, 0x3c57cadfbd418592U, 0x3cd67d07bc4d1e71U, 0x3d3c196f3c6767b5U,
  0xbd51afc53c6cc284U, 0x3ca235133d2a81ecU, 0xbd48d6dfbc9385f6U, 0xbcb2e3093cb10d7fU,
  0xbcc0d1ecba21173eU, 0x3d611734bd569d1dU, 0x3b6964dabd5e407cU, 0x3cdb147cbd3591a4U,
  0x3ccf4d75bb8f843bU, 0xbad09bfcbc0ee519U, 0xbbb90b003ca3add4U, 0x3d2d114d3d52b88cU,
  0xbc62271b3c9ccc3dU, 0x3c01cdc2bc0452baU, 0xbc07e5863cb2affbU, 0x3cea3afd3cc3020cU,
  0x3c40510abc21c3b4U, 0xbd20899ebc1b698fU, 0xbcacac7abcd2951dU, 0xbc60f3c73d44d03aU,
  0xbd46349cbc61222eU, 0x3d1b5c733c235e72U, 0x3c018d293d021485U, 0xbcd1232a3c086882U,
  0x3cfcad923d0e83dbU, 0xbd5af5253ccfcc5dU, 0x3b3c991b3af8e69aU, 0xbd5ddbbebd5fb59bU,
  0xbb898e923cd968b3U, 0x3d18cb753bc85bdcU, 0x3c3ff3d73cdcd071U, 0xbcfe67fbbcda5e97U,
  0x3d21f70b3d1b3e3aU, 0x3bb5eae1ba0dac3cU, 0xbc7ccf2d3c3c7626U, 0xbd14eed6bc84360fU,
  0xbbd36e2b3d0dab33U, 0x3d18a069bd36b8cbU, 0x3cfa465fbb0748a6U, 0x3cdc01883d23e354U,
  0xbcd8a9e1bcfd299eU, 0xbca974e4bd03b109U, 0xbb29b6523d0b5171U, 0x3c953abc3cef0ea0U,
  0x3cf7ede5bc998523U, 0x3ccd4ce9bc5f63a6U, 0x3d143c1fba1ef04eU, 0xbd59b16ebce01da3U,
  0x3c4f1474bcbc797bU, 0x3c423f383cb6ca10U, 0xbd1edbcebcd22107U, 0xbd120ea0bcbf1e97U,
  0xbcfcfd3ebd0d8842U, 0xbab1fafcbd2920e0U, 0x3a344342bce92c5aU, 0x397ec0893cf82e5fU,
  0x3bbd881bbc1b4325U, 0xbb5a97663d06b6d6U, 0x3d62deba3cd21817U, 0xbd5c4771bcd4795bU,
  0xbbc4ee14bb8955cfU, 0x3cd5180b3d4a3ba4U, 0x3c83b7ef3d349544U, 0xbc002c613d343a3bU,
  0xbcc40483bd0efb4eU, 0xbcd1ba31bcedaa89U, 0x3d3918433d38616fU, 0x3cd9d45dbc12b51cU,
  0xbcc144593bc56f0dU, 0xbc119a09bd3867cbU, 0x3d0ae250bc0413a6U, 0xbd3d2c863c51dd41U,
  0xbc6abb07bce918b4U, 0x3d23de4abd03199cU, 0xbd00062abd03a42fU, 0x3d17790a3b7d8ee5U,
  0x3a55a711bce46624U, 0x3c152ed5bd4f20a7U, 0xbd299b97bd1eff87U, 0xbc881f34bd393759U,
  0x3cc93cff3cd38252U, 0xbd5480663b926d39U, 0x3c894cecbc44aa2eU, 0x3b4fc387bca3511fU,
  0x3b86a14739f7e848U, 0x3cb35a42bc41a81bU, 0xbb4bbcec3d2a8049U, 0x3ab62d323ced043aU,
  0x3cf9dba33862991dU, 0x3bb6100cbd0394b1U, 0xbd09eedebcc9821eU, 0x3be8810ebd075084U,
  0xbc1d0c6d3d0e7e8dU, 0x3b2e2396b9941a6aU, 0x3cab67263d49b278U, 0x3cbd896c3bde5020U,
  0x3ccf2133bca829b3U, 0xbcadcd83bb8cd84aU, 0xbcfc0517bce95757U, 0x3d3fc5c3bca42c27U,
  0x3d1adc29bc5185fdU, 0xbcc3c372bd50c177U, 0x3c8dd104bd4da04dU, 0xbd57a6eb3d37ccf2U,
  0xbd36199c3ccb0a86U, 0xbd569fbe3cb50cdaU, 0xbad54468bcb2e399U, 0x3d10c1a2bbb96468U,
  0xbb7a9de43d20c338U, 0xbd2da8f6bc31c204U, 0x3c15272ebc04e8a7U, 0xbd3d49393c816d6fU,
  0x3c1cd58d3d165d1cU, 0xbc787bb8bd2b3c51U, 0x3d19b87bbd0e521aU, 0xbd2daf6ebc0c7e17U,
  0xbd339d8dbc38df3cU, 0xbb3debebbd1eba9bU, 0x3c0933b4bc8f7dd5U, 0xbd2f613dbb91d69cU,
  0xba56d0b73cabe9f4U, 0x39bbf5a43cb0f9c9U, 0x3c6dfd49bba8db5dU, 0xbd55bd54bc69856fU,
  0xba240530bc1d6c2aU, 0x3c7c71a23c9b883fU, 0x3bbbc6783d465d98U, 0xbc3970fc3d0c182dU,
  0x3ae4faa63ca4cc10U, 0xbcea65463d3d5c55U, 0xbbc0190ebc1d8a0aU, 0xbc4c3a6d3d21c6dbU,
  0xbc9d016b3d20d4b1U, 0x3d087275bd32d9daU, 0x3b2d0d633c855da2U, 0x3b84d3173cd87562U,
  0xbd22ce263c2b6a43U, 0xbc4b6cb83ca3521dU, 0xbcac65bf3c891bf9U, 0xbc0763c43c261ea2U,
  0x3ced65f7bd53d863U, 0xbc712714bd37dab3U, 0x3c8cbd6f3d37ca00U, 0xbcf39c99bc34010aU,
  0x3d0368c5bb8ed78dU, 0xbd19dfd93cfeeb05U, 0xbd391e76ba07f15cU, 0x3cf600f33d2335e7U,
  0xbd0ba3d43c13146aU, 0x3d13b46a3bba15dbU, 0xbb4b62e83b38c0fbU, 0x3c4be2e23c1b36c4U,
  0xbbb41500bcfd1c13U, 0x3d6ec54abbe1335bU, 0xbc6890d1bca88ea4U, 0x3d1154ed3c86a210U,
  0xbca1481cbcb861f5U, 0xbd07e3153ca4a235U, 0x3b85dc193d23e2e0U, 0xbd301260bc693f20U,
  0x3c633b3cbb81f2dcU, 0xbc3503cabd02902eU, 0xbd30a1433c6d8f1fU, 0x3d30066c3c6ad0cfU,
  0xbb3715e23ce4e9e4U, 0xbd4265bdbd56bff4U, 0x3c9640eebc6e0060U, 0x3d0c8d7a3d32ec58U,
  0x3d214d753d0957adU, 0xbd17b089bc29e300U, 0xbc2124fa3d4c69f4U, 0x3cb244233bc42fc7U,
  0x3c621483bb00f789U, 0xbd01c98a3cfbf50cU, 0xbd275a293cbcf00aU, 0x3d44d61b3ccce95cU,
  0x3cf940e5bc2aa9a5U, 0xbb59397fbaba5ad0U, 0x3ccc86bfbc1c8d9fU, 0x3cf377693d16ac31U,
  0xbc1183673d0b9120U, 0x3cd771f5bca99448U, 0xbd410c4fbc31d3e5U, 0x3d1b9b23bd4c9406U,
  0x3d11dee5bd48518bU, 0x3bef039d3d11e87fU, 0x3bf77dd03c7474e8U, 0x3b7247273a31ab24U,
  0x3d0c836bbcef202cU, 0xbbacbbd43d1f6a96U, 0xbd0e2e0abc4454ffU, 0x3c8f1292bd45326cU,
  0x3b17dcbf3c1c3386U, 0x3cb567a2bc78c8a4U, 0xbbb1cfe73c7af17cU, 0xbcd9b42fbd50f542U,
  0x3b9dd5243d49f7bdU, 0xbc9e4d28bc2b05feU, 0xbc6f518dbc8c54d1U, 0x3b8bb8d63c88be0bU,
  0xbd55bb01bce8c704U, 0x3d0019fb3d49a755U, 0x3ca83dbb3c88a13cU, 0x3c715f8b3d2a8a54U,
  0x3b8898f33d07d9a0U, 0x3bee50e1bd5d640fU, 0x3d22797cbc168fb7U, 0x3d1eb1cc3c9b3c2dU,
  0xbc123390bce6935bU, 0x3cc7a0bf3bb2c60fU, 0x3c843fdc3c56f72eU, 0xbce7f6273cbe27beU,
  0xbd3cdf313cb69a28U, 0xbd204874bcee17daU, 0xbb8859dbbd0a3dfbU, 0x3d12a6f3bad0f01bU,
  0x3cc0d095bc1967f7U, 0x3cdf78a7bcc092fdU, 0xbc8fc3af3b420d36U, 0x3d0a003ebd2bcc68U,
  0x3cabe9d03c565b68U, 0xbc4e6ef9bbf89719U, 0x3c5d366dbc09e2d6U, 0xbd450a523ce44f3bU,
  0x39891b8c3d24c3b1U, 0xbd43e23b3d376361U, 0x3c215c9e3d410a7eU, 0xbc5df4cabd1f2916U,
  0xbd5bb7403c3adf1cU, 0xbd4b653bbbb6cef0U, 0x3d1a29a5bcdeeff1U, 0xbcd64f8d3b8eb1daU,
  0xbd4c50d2bcbadebcU, 0x3d0647e8bd4e3ddcU, 0xbc8b66e6bbfa8915U, 0x3b5da6f9bd103f8cU,
  0xbd1d9f35bcbea0feU, 0x3be4aaecbb7f20d6U, 0x3b9cc76cbc95aae8U, 0xbcb1ffb23caa0e3eU,
  0x3cb338f0bcb2996dU, 0xbcbfbba83c54fd8bU, 0x3d0d79ed3d45a8c8U, 0xbcd3a16f3cbdd5b7U,
  0xbd10ffe23d083961U, 0x3d0545293c11f24cU, 0xbd1864ff3d177fb2U, 0xbc9ece0fbd59914cU,
  0x3d1e1d673cc6f28dU, 0x3d2a1886bd5da699U, 0x3d33d9e3bceaae08U, 0x3d3844913d0235f0U,
  0xbba17bcdbc872ef2U, 0x3ce111dc3cbe4b41U, 0x3baa40a73ca8073fU, 0xbd47092cbd176759U,
  0xbc16b0033cbbba30U, 0xbcb26dca3ca2a03fU, 0x3d06b4063a33764fU, 0x3c89dfa5bd530d6cU,
  0x3d5994eebd3d5bc6U, 0xbd60f3b9bd09b382U, 0x3cf8daf43d45b104U, 0x3d357f943aba461eU,
  0xbcae9b353b06126eU, 0x3d4c08b3bca8d669U, 0xbc8cf311bd010262U, 0x3c850a6abc624c58U,
  0x3c2d50193bfddb56U, 0xbaa280913d12c3e8U, 0x3cd8e6413c43286eU, 0xbd1e8a1e3d41bdd2U,
  0xbcb6d78fbd3c558aU, 0xbcf58133bbcd2812U, 0xbd2ba9f9bccf01deU, 0x3d1594c2bd3f96d3U,
  0xbcd3c8b63cbec285U, 0x3cd0d68f3bfa3b08U, 0xbd25053abce813aaU, 0xbd352a933b382c5cU,
  0x3c37b7d9bbb69b08U, 0xbd0d235f3ced1d4aU, 0xbc0ca32f3c80c6f2U, 0xbc79cb57bd472bedU,
  0x3cbf691fbc334454U, 0x3d18be9ebcd8d11eU, 0x3d000b32bd3face3U, 0x3bae458bbada52f3U,
  0xbd2ff3d63c907f28U, 0x3c5839cabc77f5c1U, 0x3c4df4a6bd0b4cc6U, 0xbcf811593cf19cbbU,
  0xbc1bd515bc268617U, 0xbc2cf0f7bd4d2bf0U, 0xbb08e4a83d2559eeU, 0x3ba54d80bcf2d89cU,
  0xbc41469c3d212120U, 0x3c35795fbcf4b691U, 0xbd145bf53cc3307aU, 0x3ccca3afbca7804bU,
  0xbc3a81863cb6ee14U, 0x3c084625bbe6471aU, 0xbd241d58bd1a4034U, 0x3c9cc6ad3cf2a269U,
  0x3d0c2a4ebce8a60fU, 0xbca69c0cbd26ee13U, 0xbd5ac249bcc83be5U, 0x3d0cb7d9bbfa6d36U,
  0xbc02587dbcd530dbU, 0x3cfbbaacbd0f6cc6U, 0x3ac7cbf43d5885faU, 0xbb0e168abcb1767cU,
  0x3cfb79e9bd3ee36bU, 0x3d0389a8bcb7bde5U, 0xbd026667bb80230bU, 0x3ce0e4403d3d9deaU,
  0xbd5e60a8bc90e837U, 0xbc894fe03cfdbb71U, 0x3cc259fbbd412dfdU, 0xbce87ce23d2092e2U,
  0xbd4afba3bc978475U, 0x3c16b4e43d026ac9U, 0x3d55e4b3bb25a202U, 0x3c33b941bca7ba5dU,
  0xbc5b0f54bc314ca0U, 0x3b49f99e3c373c3eU, 0xbd5cf372bc9529fbU, 0xbcf7ec913ca3e58fU,
  0x3a47840c3cf96c0cU, 0xbcc77471bd2bee3cU, 0x3c5b529f3bbb2b95U, 0x3d41a0553c9664bcU,
  0xbd12aa81b948e334U, 0x3bf7efedbc5aa71fU, 0x3d457b3dbca554efU, 0x3d1a94463d255c3dU,
  0x3c908412bccda13bU, 0xbc799e5f3c69f22eU, 0xbd5c91493d39f9c1U, 0x3ceb8cffbacce02bU,
  0x3d21cfc33c8942a5U, 0x3c46fcbabd2e3a7aU, 0x3cb444c6bd085923U, 0xbc4c6b02bcf23e18U,
  0xbb566b89bd678183U, 0xbcd23ec43cb40693U, 0xbd1c89dabb2018b7U, 0xbd41e0f0bcd7d9fdU,
  0x3d0e1f85bc46ce22U, 0x3cbd15c0bc40141fU, 0xbbe9a3e33cfbbfc7U, 0x3d27eebfbc351274U,
  0xbc94f341bc52fe17U, 0x3d26c9bfbca7d7b2U, 0xbd4960e4bc4469b2U, 0xbd36236c3c587053U,
  0xbd084f3ebd085cbdU, 0xbc55613ebd26cd3eU, 0xbcb2f8b7bcef3e21U, 0xbc811076bcea7bf0U,
  0x3d5218a93d29fa7fU, 0x3ce9a39abd316213U, 0xbd2d674cbd5cb73dU, 0xbcf347eebcc57fc0U,
  0xbd27dbda3cfec7a8U, 0xbcfde4f4bac28eceU, 0x3c8944583c6a72b8U, 0x3ccb9e663d0e1ea9U,
  0xbd48c95cbd05dcd2U, 0x3cf9bbf7bce0a002U, 0x3d0e286c3c8bb81aU, 0xbc19990a3cd6f6cdU,
  0x3d0446c4bcb121cdU, 0xbc9f90983d056d10U, 0x3b7c1164bc07ee99U, 0x3d09f224bd0864b7U,
  0x3c90db97bcb64a2eU, 0xbbc81273bb849635U, 0xbd26ebc43d089d18U, 0x3d125172bc9e8e93U,
  0xbc9629b5bd375bd0U, 0xbd201d68bc01ada7U, 0x3cb117d93c3c72bfU, 0x3d03de2c3bb81142U,
  0x3c807996bd23596aU, 0xbcaafaa5bcb17a79U, 0xbb17f8cdbd34d93fU, 0xbd53fdc1bcdb904dU,
  0x3ce6d7153cc65f0aU, 0xbd3cba763cedaaa3U, 0xbd2f10743ccd7d47U, 0xbd0dc6ae3d23498cU,
  0x3cd5809e3d263b63U, 0xbd06046f3cd5d5b7U, 0x3d5f13ac3c0ab07cU, 0xbd174d10bc8dd4e5U,
  0x3cf967913cf2e657U, 0x3cd32fca3cd0e953U, 0xbc6eda3b3ce6e1aeU, 0xbd1192dc3ca716ebU,
  0xbc3bdff1bc3ac4deU, 0xbcb2dafdbcba869fU, 0x3d335c1cbd23a059U, 0xbbb2eef1bbf2d801U,
  0xbc86c1203d0201acU, 0xbcd4ffc7bcc4bb25U, 0xbbf5700ebcd322b3U, 0xbd3083ba3d1c9547U,
  0x3d24ec90bbfaf1eaU, 0xb99607dd3b94aef8U, 0xbd63c4bbbbe9fff7U, 0xbd18bc7f3ccc4176U,
  0x3d39eba6bb95d8c1U, 0xbce42d3abd1a03abU, 0xbb6c5e08bca845bcU, 0x3c6a9200bc018709U,
  0xbc3d9d51bc9ca78bU, 0xbd3ffdc23b8fc1a3U, 0x3c039a823d0dfd96U, 0xbb9be3303d2b7876U,
  0xbd5033eebd09c499U, 0x3c67bded3c0d4fa1U, 0xbd233b6abc4936a6U, 0x3bf085b33d35f23fU,
  0xbd014b613ccac6b8U, 0x3d070b373cbf1cbbU, 0xbcac1222bd3ea147U, 0xbc9eed93bcf0efc2U,
  0x3cc5fea1bcea6bb7U, 0x3c438da4bbb8fea7U, 0xbcf9e9b8bb40c817U, 0xbc6a9fad3c01b90eU,
  0x3a4c22a33d210c7eU, 0x3d1b35ec3cd9f4d2U, 0x3cda34e63ce90f4bU, 0x3cb88dbabd5a9dc1U,
  0xbcda94883c860082U, 0xbbec12f0bd098ca7U, 0x3d1411bfbb587f99U, 0xbd400209bd0cd5d8U,
  0xbd5ede34bd284c68U, 0xbd1533ae3ca35294U, 0xbced3745bca1e803U, 0xbaa87e9a3caea3b7U,
  0x3c63e149bad469c0U, 0xbc3763bfbcbcf8b4U, 0x3d2fdbc93cd020fcU, 0xbd0c2de93c9c5ac8U,
  0xbc9beabb3d0b363bU, 0xbca06e903cd52916U, 0x3d24d483bd27a0b9U, 0xbbf2ef2bbd56b9f9U,
  0xbcd4ac0bbd46d12eU, 0xbcc268b3bc88162aU, 0xbd49e0caba97ababU, 0xbcefc0f8ba39104cU,
  0xbd47ec91bd592fb9U, 0x3bbd929ebca6c6a1U, 0xbd3b5a7a3c4201bcU, 0x3be0c1dd3c8ad7fdU,
  0xbcfe64ca3cfb4f59U, 0xbd114e4ebcc199f9U, 0xbbc8244e3c7ad550U, 0x3d0cd77e3d0fb663U,
  0x3ccbf3c33d011a6dU, 0x3cfd52083be0bddcU, 0x3d41d7d83c1d6a43U, 0xbd0af1e2bd204492U,
  0x3d18472d3b919a13U, 0x3c46a25f3cfb69cfU, 0xbcef83acbd209f27U, 0xbbec5ce3bd027a7bU,
  0x3c8e3881bc961ef4U, 0xbd257bafbcc4356aU, 0xbd1b9a0c3ca74962U, 0xbcb7df42bc9d6629U,
  0xbc6229763cb9fb1dU, 0xbc907a7cbd00ab83U, 0x3d4950d13d06f900U, 0x3c185dcebcaa5d68U,
  0xbc5ebe73bd255c19U, 0xbd482d8d3b7ecd03U, 0x3a758eb03d14114eU, 0xbd47e03d3c96f199U,
  0xbc28d45bbc84ca28U, 0xbc96a752bbbd626cU, 0x3ce729e83c1315e7U, 0xbd104a06bcc06388U,
  0x3cb1ab3e3d11f02bU, 0x3ce3f887bc63e6dcU, 0x3d0eb70f3d5e247eU, 0x3c87f1b2bb6ce577U,
  0xbd0f99bdbd55f52cU, 0xbd21d5c0bcec0d50U, 0xbcb67ae53ab3a1b2U, 0x3d0881473cdb4ceeU,
  0xbc8e9a57bcd7ace2U, 0x3d0e8e96bd5da360U, 0x3af751dc3b24147dU, 0x3be12db5bc932763U,
  0x3c80ebf5bc8681ffU, 0xbd304fa6bd15a139U, 0xbcf15589bb1d9f76U, 0xbcd9de97bbc3416aU,
  0x3d06f8863cd8ab82U, 0xbc82e3373cec9382U, 0x3d0b92c03c670f44U, 0x3d1ccedc3caacf42U,
  0xbca16a933bedddb2U, 0xba90101ebc08d4ccU, 0xbc05a6563b828663U, 0xbd11f33cbac2d88bU,
  0x3d3ce71b3cf20d75U, 0x3cf1cc63bd017aa7U, 0xbd5dc5f4bbc610a2U, 0xbd33b0d0bcdcd2caU,
  0x3ba39fa63cd390ccU, 0x3c017c89bcbab516U, 0x3ccd7ef5bc4e4b58U, 0x3d3f4bec3c8d3efbU,
  0x3b78b98e3cd97004U, 0x3bc4ca9fbc141351U, 0xbcce861cbd555922U, 0xbcd2837fbd167509U,
  0xbd4f9ad7bcf8dd73U, 0x3d003c7e3d412b76U, 0xbb405244bd4f9b2eU, 0x38fa5d9bbd10c36bU,
  0x3cf6a8bcbbe97629U, 0x3b826c93bc246f21U, 0xbc8747873d1f4177U, 0xbb1f8b1c3d20c9daU,
  0xbcb2b94c3d1eadbaU, 0xbcfbbe003c20900eU, 0x3d2984f6bd4d2631U, 0xbc12e7e03ca34691U,
  0xbd43c4043cd2d8fdU, 0xbc60d8673d1d73f3U, 0x3d192bc4bd5d1c82U, 0xbcd208b2bc1631e4U,
  0x3d012283bb89bbf4U, 0xbd5e6d803ce0065fU, 0x3ab2f6abbd3c9d45U, 0x3b1f0b4e3d04c3a1U,
  0x3c966e2c3c2e892eU, 0x3cfcc2563ce9d87fU, 0xbc79e20e3cb07661U, 0x3d8050a9bcae57b1U,
  0xba714ab0bd05aedcU, 0x3d559f0fbd1150faU, 0x3bcf8a983d1d235dU, 0xbd3d06a1bc2e6644U,
  0x3cfdc45dbcf328d0U, 0xbd230e293d0cadeeU, 0xbd166900bd503534U, 0x3b8b45c93c139b5fU,
  0x3c287b933c03b96fU, 0x3bbcf1513d0cad45U, 0x3c81859b3d30e562U, 0xbd0e0c163d4bfc21U,
  0x3ca568abbcee15c0U, 0x3bfa9e2b3c66873dU, 0xbd29087a3d362a11U, 0xbce1c71cbd301e57U,
  0xbd41fdbd3d23e7bfU, 0x3bb39e94bc75c6ceU, 0x3d1c339ebb2f57dbU, 0xbc95e8ed3d36951cU,
  0x3d2bb9d1bcd22d2aU, 0xbcfd7293bc00b433U, 0x3d1284523d090afbU, 0x3d313c453ca34142U,
  0x3c3a887cbca4b833U, 0xbd28a862ba40bb74U, 0xbcdc0bf8bc9f1c06U, 0xbc98701c3c6c33eaU,
  0xbd5aba4eb8cd8122U, 0xbce5294bbd1bddfbU, 0x3aa21993bc02e462U, 0xbd17a3e23bc7d645U,
  0x3d242b5cbd4c5263U, 0xbc908d4dbc051f99U, 0x3d1ffe57bc546a4eU, 0xbbc9c2293cb73d5bU,
  0x3c531d07baeeab53U, 0xbcc0441cbcdc80faU, 0xbc8113653d1d6196U, 0x3ccfc6133d4b7416U,
  0xbd57ebee3c7a05a7U, 0x3bb0d0b6baf496e2U, 0x3c208d82bc1637b7U, 0x3cdb361f3d607f6dU,
  0x3cba553bbcdc4299U, 0xbbfd9d6bbd049232U, 0xbc484d993cc08531U, 0xbd0ff43b3b792879U,
  0xbd254bcfbd5a033dU, 0xbd3c7049bc56cc59U, 0xbc88c5793d54af4bU, 0xbb2736a33cff5511U,
  0xbcc786c1bcba1a13U, 0xbd3d1dc9bcf2fec3U, 0x3cff1752bd44b69dU, 0x3d20cf863cd73c81U,
  0x3c81d7963d27ae02U, 0x3d2492e73c57d073U, 0xbc882150b9346659U, 0x3ce5b57abd161698U,
  0xbd257921bc19fae1U, 0xbd027c03bd074315U, 0x3d0b24163c538791U, 0xbc99600d3d044181U,
  0xbce8ad09bc913c91U, 0x3cca7bb03d1d8311U, 0x3a2864e3bcb3f167U, 0x3c51ddac3d07fee2U,
  0x3c72fda5bb9e5ec0U, 0x3c1035953bf8b862U, 0xbd080e79bd172008U, 0xbd29440e3b7d23d5U,
  0x3bb7b1d13c327fb4U, 0x3c6c95523a8c0d60U, 0x3c9d690cbc349c39U, 0x3c19165e3ab7cedbU,
  0x3d08238cbb33cdf2U, 0xbcf178ffbd1e0555U, 0xbc8fe56e3d020656U, 0x3c18b6943d1f9f4fU,
  0xbc4460d23cb54320U, 0xbbe1bc1dbc182e73U, 0xbd2d4af13bddc6eaU, 0xbc9c6e3b3d27c4d9U,
  0xbca391d63d13f13fU, 0xbcefba45bbdb8b20U, 0xbcf042dd3d17f2a2U, 0x3c84eab93d377399U,
  0x3d0a3e733cfc4ab7U, 0x3cced820bc779e2bU, 0xbcb7f58abcb2ae25U, 0xbc3590773ce16349U,
  0xbcfc7f3fbccaaf2eU, 0x3d4d88433c4b9538U, 0xbcdac1cfbca1c5b8U, 0xbd40eaa9bad24700U,
  0x3d0727db3b9a63d1U, 0xbd12d551bc27deddU, 0xbc63bf4cbc5f56aeU, 0x3c18477dbb9ad953U,
  0x3cbe5abebd051de0U, 0xbc315d93bbe473e7U, 0x3bbb0358bc8d045aU, 0x3d02438cbcd01acaU,
  0xbd5d5dff3cae6611U, 0x3cd67eddbca69a1cU, 0xbd7552e0bcc8e62dU, 0xbbdeb8953c1e56faU,
  0xbd554492bc278091U, 0xbd3202adbd5c06c9U, 0xbca32f303b0760daU, 0x3ccf92463cde174fU,
  0x3ca2f0ad3c5fd44dU, 0xbbabf5e1bd16749dU, 0x3cdabdf83c8cefadU, 0x3c42e4503c37103fU,
  0x3d1216663cc34eb9U, 0xbcc09d723cdb724bU, 0xbd2c3f70bd315d7bU, 0xbd3dba303b90650eU,
  0xbc9896e8bd2f4cd1U, 0x3cd9104dbce79f4aU, 0x3d5967cdbbc5e99fU, 0xbc0b2a5bbd1e089bU,
  0x3c70645fbc04eb12U, 0xbd366ca6bcd429c6U, 0xbd453afebcf3a2b0U, 0xbd20b5a1bcc088ccU,
  0x3b2efc63bb432b81U, 0xbc409d7abc2bb11bU, 0xbb3152f23c964c08U, 0x3c800b9c3c9c3306U,
  0x3cf0e0563c781a55U, 0x3d08f4673ca24f4aU, 0xbc3443b13d46af13U, 0xbb649ce53cf985c4U,
  0x3a7cb7163d012cabU, 0xbcedbc7a3ce9dc14U, 0x3b9587febc86e90fU, 0xbc793adb3c8a5be1U,
  0x3c02ea26bd1087e4U, 0x3d10273abd65ca3fU, 0x3c598b78bc3b9137U, 0x3b910e95bbb970fdU,
  0x3d252932bd26cd21U, 0xbd60a37bbcc650daU, 0xbd397ac93d2233b0U, 0x3b1ba79d3b345029U,
  0xbcfc8750bca7b8a3U, 0xbd430ce33d0b8659U, 0xbc96cecabce899ecU, 0xbb113ee33c2c606bU,
  0xbccfe4abbcc3cdbbU, 0xbc473d393d10d98bU, 0x3d22239ebcb1a17eU, 0xbd1f5e7c3bcbdf01U,
  0xbd599b4bbc15e648U, 0xbd05d963bd15f820U, 0x3b9ec777bd077293U, 0xbb897aa93c5b08f9U,
  0xbc53cfbdbc812d77U, 0xbd4b90ddbd4900b5U, 0x3cf6c55f3ceefbbaU, 0x3ce82d903cb46ee1U,
  0x3d1b282dbd1f5e26U, 0x3d53763dbd4fdc5eU, 0x39fc11be3c757239U, 0x3bea07df3bb295efU,
  0x3ca160a43d1db1bcU, 0xbc829e92bcfc06acU, 0x3cb5391ebc8816a3U, 0xbc9cc8e1bc9c4fecU,
  0xbd226761bcc17430U, 0xbcac3928bcad2c54U, 0x3d20d0a83cfabf72U, 0x3d075d99bc08457aU,
  0x3d514d053cba1b49U, 0xbd1124793d119923U, 0x3bd2e05f3c164fc9U, 0x3c62e3f7bb25ab20U,
  0x3d172aa23c80b8faU, 0xbc673dc73d23228aU, 0xbb0b051dbc8629e8U, 0x3cb48c983c205e69U,
  0xbc2d9133bcbdec7eU, 0xbce735893cbbc778U, 0xbc30f5233d1da028U, 0xbcafb192bd3e9428U,
  0x3c910b5bbb2e3adcU, 0x3c43454c3ce9c069U, 0xbcdfb1d63d4c57edU, 0x3ce82a363c9de724U,
  0xbc95f2743d0318dcU, 0xbcc659c837ccd7a6U, 0xbce7566a3d4339dfU, 0xbcbd8efbbd128537U,
  0x3d25a119bd483b21U, 0xbb6db68e3c8dc9f4U, 0x3c00a3723d2b981bU, 0x3d2215c33c850a5aU,
  0x3cd9deb73c7900fbU, 0x3ca22b5d3d08d412U, 0x3c0687dcbd2d9f6bU, 0xbb8fb979bd16cc26U,
  0x3bd47338bc87cdb6U, 0x3c0bfbe13c70a377U, 0x3bd33d243d341548U, 0xbc752d4abd0c5145U,
  0x3c5a3fca3b2c5103U, 0x3c86697bbd50dbafU, 0xbcc1ca553d20605eU, 0xbc43158abca22872U,
  0x3c2fc39e3be88e39U, 0xbc37d4d53d1f1d1aU, 0x3cc021253ce03378U, 0x3d406f2cbd3581b7U,
  0xbcccdb353c787a80U, 0xbd4ed3173c893e28U, 0xbc45215e3d366202U, 0x3cfb55773c258c42U,
  0x3d5492813cefa378U, 0xbc7dfbe3bd0c1aa6U, 0xbd2e48823ce598b4U, 0x3c85664ebd39c158U,
  0xbd3697b8bd66bf82U, 0x3c5e5b273ce9bd03U, 0x3c6c396f3c27cf50U, 0xbc9196be3d0b1c43U,
  0x3bd511a7bcbf53dbU, 0x3d5974103d5183a8U, 0xbc0cceaebd2694bbU, 0xbcc2d3cd3c881bf1U,
  0xbcd27058bd1287fdU, 0x3cefc969bd11a28bU, 0xbcf546d1bc954956U, 0xbc507e263d022bc2U,
  0xbb8e9f5bbd6b45a5U, 0xbd0daa273d103b5aU, 0x3bc57010bcac1fadU, 0x3d00df81bc539679U,
  0xbcd03d32baf4fe25U, 0x3b95789d3cc700f4U, 0x3d25d8ffbc3001beU, 0x3d17978e3d4dc05eU,
  0x3cc427cabd14dcd7U, 0x3b56abffbd523c41U, 0xbb166e6a3b276e5fU, 0x3c01eb16bca4c81fU,
  0xbca7d2e8bb67c2e0U, 0x3c812f3abcaf9d4fU, 0xbd5372a23bda943eU, 0x3c924f97bba31fbaU,
  0x3c6f9e18bd18ffb9U, 0x3cd290613ccb4f4aU, 0x3cc2aaf4bbebed4aU, 0x3c51e3a5bd214c5fU,
  0xbcc20a3dbc623db9U, 0x3cbbb037bd388dccU, 0xbcfeaf9bbc095b1aU, 0x3bf002a1bd0ec737U,
  0x3c8a003cbc2d9c03U, 0xbd26cd69bd4c8d68U, 0xbd2771aebc81eb7cU, 0x3cce3a47bd02097cU,
  0xbb484c713ce8892aU, 0xbb951a953d54c6a0U, 0xba4b407b3d0aa9e1U, 0x3c88d66fbd0a2284U,
  0xbcd8cb72bcdd7f02U, 0x3b5a1157bcb7deacU, 0xba864be03d42dc79U, 0xbd4c3666bcc722c9U,
  0xbd32565bbc549b86U, 0x3d5d553abd180784U, 0x3d479039bd00c357U, 0xbcc99cefbc2475d9U,
  0x3ccc8b8dbd0f4b38U, 0xbd33fcffbd0dabc3U, 0x3d0b4932bcaf1531U, 0xbd558d1dbcfee33bU,
  0x3ae9a8eabd3b2d44U, 0x3d160310bcc2a74dU, 0x3cb74e313d28b41dU, 0xbc54c9853c785742U,
  0xbd03d4a5bd2133d2U, 0xbcaa6bd43c61ac5cU, 0xbd0721eebb991f3aU, 0xbd06622f3cab05d0U,
  0x3d28132c3cf105d9U, 0x3cba7d6cbcef06b1U, 0xbd04549bbc1944abU, 0x3d31e46dbce13962U,
  0xbc29eba3bd4751edU, 0xbd376ad33cd5b5aaU, 0xbcc2cd0b3d414533U, 0xbd37a5073d18f2d2U,
  0x3caed2203cf33e68U, 0x3c77fa993c18d37fU, 0xbc201213bd1a0fe2U, 0xbd5c9dc43cfb59c8U,
  0xbca1c08ebd496cdfU, 0xbd543328bcf98273U, 0xbce86509bb96a36eU, 0x3bce36a33cd5d617U,
  0x3b86b92c3cafc2deU, 0x3cb50ddbbbb5d3d6U, 0x3caf2448bd0267e8U, 0xbcaae7443ccd738dU,
  0xbcb7923e3b2e98efU, 0xbd3d1628bbd297c3U, 0xbbf482583c6fee9aU, 0x3bbd62ffbc101190U,
  0xbc8dc6cc3c13e28fU, 0x3aec9bb73c212f64U, 0x3d17b9e0bc90ed43U, 0x3cd973683c8a7317U,
  0x3ccaff5cbd1d87bcU, 0xbd607565bcbed037U, 0xbc91644ebbbff2e1U, 0x3caa66a1bc174d6fU,
  0x3d19abbabc3a8e72U, 0xbc6234923c875e76U, 0xbcee63b2bcf92d8bU, 0xbbe0ed79bd30bf5cU,
  0x3c9634db3bfcf2a2U, 0xbd0e3b27bcf72a9cU, 0xbce4dacbbd539897U, 0xbc42bb7f3d563be5U,
  0x3ca49174bd31f1beU, 0xbcfd39d1bccdb0f1U, 0xbcf8d2bfbcb7dec5U, 0xbd2ff665bad07999U,
  0x3d17de54bbdae29bU, 0xbd253d073c380c34U, 0x3cc159453d10e0f1U, 0xbca4758fbd1540a6U,
  0xbcc223c53d0a6e07U, 0xbd0b9ab33cbdc789U, 0xbd1398403a4bd59aU, 0x39949b3fbcb306d5U,
  0xbd47d0e0bd1c5b0dU, 0x3c70d9463bb41047U, 0x3d05e1ca3d58f131U, 0x3cc770efbc8b4911U,
  0x3d072f3b3ca3bfadU, 0x3d52111d3cae9487U, 0xbc86d947bcdae0ceU, 0x3d3aba993d2fcab2U,
  0x3a26f932bc1d3f55U, 0x3cbc0f06bd5e4068U, 0xba7b52cc3d24e9b3U, 0x3ccdf6393ca3dfb5U,
  0x3cc49a45bd14556bU, 0xbd26d6013d27d3a1U, 0x3c373d613d38f2c0U, 0xbc5cf3c7bcc9287cU,
  0xbc36bd2cbd087a55U, 0x3d04db43bd34a133U, 0x3d2168f639e9eb09U, 0xbd0176523bfb28cbU,
  0x3cbfd795bc501fecU, 0x3c2ffd57bbe54e1eU, 0x3d22acfc3d212aa5U, 0x3c7732613d45c0caU,
  0xbb8ea4a8bd47be05U, 0xbd04d0aebd0d04b9U, 0xbc3c4a333d4c5ad2U, 0xbcd625bebcf1e219U,
  0x3bd08038bcf60c7fU, 0x3d5e79fdbcf857b2U, 0x3d23cd953d1feb37U, 0x3ca46fe4bd424f7aU,
  0xbc1f17dd3d1785edU, 0x3c87abccbd0f83e2U, 0x3b2ccee8bd2a116eU, 0xbccb1ad3bd191cf9U,
  0xbbeb66833ccb533eU, 0x3bbab1233bac4d35U, 0xbd022c093ced5cf5U, 0x3c8572163ccc11e8U,
  0xbd081fac3d0b5a12U, 0xbcdde84dbd10ded3U, 0x3cf67a6e3c35ae8fU, 0xbc0f38783c8a925bU,
  0x3c009a043d1badfdU, 0x3c709183bc6e17d1U, 0xbd22deb13cff1bb9U, 0xbd1b15d1bc537150U,
  0xbd039ae4bc36ef74U, 0xbbf11363bc0985bdU, 0xbd2cb2e83c2876ddU, 0xbd274b58bb658101U,
  0xbc5855fdbce70232U, 0x3bb16dcebc250c77U, 0xbba74dcbbcb6d4daU, 0x3c86393d3bb4385eU,
  0xbbf3ffad3cee2d55U, 0xbc3f0f223c8266d1U, 0xbb8fc01f3ca0fcfbU, 0x3d0f9d4abd215bf4U,
  0xbd0ae141bd18aca2U, 0xbc1b8740bc0a2c85U, 0xbd23b93f3cdb464dU, 0xbc8eb6bfbb305d60U,
  0xbcbd4bc5bd2ddb3aU, 0xbc76a78c3cf9a363U, 0xbc338064bbcc7593U, 0x3cc9331dbd40d3daU,
  0x3d206d9d3c903888U, 0x3c92a3133ce2ecceU, 0x3ba8d562bd1b8823U, 0x3d2832bebc3d47e8U,
  0xbccf8df3bd4e6496U, 0x3c8cd8073cc6f210U, 0xbba2e6173d0648e3U, 0xbd2a6976bcd17784U,
  0xbd4c43673c0bfe00U, 0xbd1821d9bc5e44c3U, 0xbcb30c0e3b736646U, 0x3cbf40f4bc2840f9U,
  0xbcde071c3bbe1a41U, 0x3cba0c9cbc8cbefcU, 0x3d81889d3ca0acf5U, 0xbbf771f4bc9daf1dU,
  0x3d1c6ab73ce86c32U, 0xbcf516f93d1fd5dcU, 0x3c1c290b3a487134U, 0xbcafde6fbd0fda49U,
  0x3c60aab73d06ec86U, 0xbb92776cbcd010bcU, 0xbcdced7fbc095161U, 0xbd2a03fe3c80d1eaU,
  0x3c98c1f3bd1cb809U, 0xbc072df13aa2cd01U, 0xb858a281382fdd48U, 0x3d1bf977bd0032c0U,
  0xbcddb29abd4c31d9U, 0x3d0a9df03d2a848cU, 0xbd245acd3d127732U, 0x3c2e571ebd2a1ea4U,
  0xbb79b207bd62e09eU, 0xbc6db91bbc63337fU, 0x3d3cc87c3cc190caU, 0xbb8a30efbcc673e7U,
  0xbd2c6917bc2db0bdU, 0xbce0483fbd1348b6U, 0x3c5f2483bb349f61U, 0xbd37f6413d5a5201U,
  0x3cc0b03cbc815dcaU, 0x3c289c4b3cfd3901U, 0xbd5885653caa64d1U, 0xbc3683143d45e003U,
  0x3c85cbcabd160349U, 0xbc9bf9903d010981U, 0xbd0333093d226860U, 0xbd120a7abd28187bU,
  0xbd06a2cfbb88f059U, 0xbcf4ff5c3bc4c909U, 0x3b6208d23d02156bU, 0xbc52caf1bd08721dU,
  0x3cb709ab3bd313f6U, 0xbd29fc8c3b8f2187U, 0xbce0e66f3ccbca0cU, 0x3d1679323d43f5b4U,
  0x3b7881be3c893833U, 0x3d42b8073b5fd805U, 0x3d07d633bc44095fU, 0xbd09cb2e3d131196U,
  0x3a845ba4bc3146f4U, 0x3d160844bcd8d916U, 0x3c892751bce7d206U, 0xbc955a79bd1f9febU,
  0x3d52c6e33cdb88c9U, 0x3c40f58f3c780cc8U, 0x3bc184933cf69971U, 0x3d5d74ddbc8093daU,
  0x3d1aaa0bb9bd50bfU, 0xbcff7ba9bcb50506U, 0x3b7f91b63d04afb2U, 0x3cf6b0f2bc07ac8cU,
  0x3c8daeb43ccd4d5bU, 0x3d188a1e3bbed99dU, 0xbd2781593d11e716U, 0x3c3e2b0a3d00520bU,
  0x3cd9856d3d1464f8U, 0x3b37eae8bc8f5be0U, 0xbc1ac5aa3ba4a611U, 0xbd0355873ccbb860U,
  0xbd14834cb97a5cfbU, 0xbd0881293d07e073U, 0xbc9cd7143d0585dcU, 0x3ad084273cd20e04U,
  0xbd096cbdbd551e8eU, 0xbd0c9ebc3d29b050U, 0xbd631f67bb0f2bf3U, 0xbd2c4a573d5008f4U,
  0x3c209c1e3c8db508U, 0xbad4d3f63cf4a66dU, 0x3d0b59febc4fa696U, 0xbd2a7b663d1b7099U,
  0xbd03f453b979f8c4U, 0xbc98b4793b9bc46dU, 0x3cfdb948bc467266U, 0x3d15d1d4bc86c1bbU,
  0x3ba413f0bd2dbb51U, 0xbd0a78213baa2c86U, 0x3c583c2a3d23e08eU, 0xbc0a08abbb295717U,
  0x3d0892a0bd3a28f7U, 0xbd55fc593d174fc1U, 0xba112161bd3413b3U, 0xbd173204bc8f1825U,
  0xbd14bfba3d171ff3U, 0xbd024f16bcacf59aU, 0x3d327fd43c8bc7b7U, 0xbc4c17c73ca06038U,
  0xbba065bebd2edfa9U, 0xbcce0dc23c1f3335U, 0xbd1f9d303c6f74d5U, 0xbd4225f5bd140e75U,
  0x3c9f735abc334a5cU, 0x3c5b2acb3d18a7a0U, 0xbd0e964ebd34b2bdU, 0xbce2f40bbb79175dU,
  0xbccd93e4bd3b13b7U, 0x3d12a36b3c8fef08U, 0xbd0404bbbc03a4e4U, 0x3c6a7c7b3cdba5b7U,
  0x3caf692d3d09720eU, 0xbcade5febd502325U, 0x3ce9db713d14c76fU, 0x3908e3a7bc2d32adU,
  0x3b0b1718bd41b53dU, 0xbc76f50c3b120fbfU, 0x3c8999093cc14bffU, 0xbc54682fbb1325d6U,
  0x3d0974db3d2756b4U, 0xbc905b0bbd4d6b3dU, 0x3d2b45d9bcf0e28bU, 0xbccf76a73d290e75U,
  0x3c374b803d13342dU, 0x3d43fdd1bd31e142U, 0xbc0f5fe8bc92f982U, 0x3bda3b6d3d6073a5U,
  0x3d0b8f4fbcd62774U, 0xbbc2fa603ccf41f5U, 0xbd4aaee63d3e043dU, 0xbcc5dd9ebd05f315U,
  0xbd0f35443bf715a6U, 0x3af80b833c084b2dU, 0x3c22837f3cdcb3a1U, 0x3c7bc9333cf1e9e7U,
  0x3ce0d27cbc83293fU, 0x3c790d4ebd208e3bU, 0x3ce097003ced1170U, 0x3c7333aebcece292U,
  0x3c97255b3d26b0fdU, 0xbd1d4c3b3d605ca2U, 0x3d0d9896bca52830U, 0x3d043fbb3da365ceU,
  0xbc8bddd2bcfdd7daU, 0x3db7e27d3d88b559U, 0x3d8e3f2c3d8f5123U, 0x3c505fc7bd64f9f5U,
  0x3d9ab0cb3db18e04U, 0x3d1487a13caa9d8aU, 0x3cb3578a3c59e615U, 0x3da989283dc79a89U,
  0x3cd158c7bbc28df6U, 0x3a5c23bc3d9e4440U, 0xbced37543c67baa4U, 0x3d3b0d873cbcbdd1U,
  0x3be076a23cd90ca2U, 0x3d9aef8dbc828a68U, 0x39079fde3ce5ffc4U, 0x3dc6336b3dc583a6U,
  0x3cfc55783cd9755aU, 0x3d5b64033c23c077U, 0xbb4e0abf3d409b7aU, 0x3d2ecc503d1bce87U,
  0x3cb816c53d57d19dU, 0x3b6e8f483c83a72aU, 0xbca61c503db0ef55U, 0xbae794d23d9b4cdaU,
  0xbc7a8f773d494f4fU, 0x3ccf9938bc0ea88eU, 0x3b6254bfbd7a6b53U, 0x3de446e13dd143f9U,
  0x3d8ece3fbcc56270U, 0xbc458ad9bab84ba1U, 0x3ccfbc71bc609abbU, 0xbb35eb13bcd0378eU,
  0xbcde973cbc595dfdU, 0x3b47a66c3c4d45a4U, 0x3d5ff5da3c8540a5U, 0x3cda76173d0d26c2U,
  0xbd01fb7f3d993099U, 0xbc21ab6e3cecf67fU, 0xbc5ea3c63d0f452aU, 0x3b04660e3c00a2d5U,
  0x3d59d0a13d8a9aebU, 0x3d269af0b9eec565U, 0xbc237810bc799137U, 0x3d68e1c93c0a3e63U,
  0x3c2e45eb3cb67547U, 0x3d0189a73d36c4e5U, 0x3d8027aabd510029U, 0x3d09d122bcd9ba57U,
  0x3d465721bc60f8abU, 0xbd51f94d3ddb4a03U, 0x3dc6b3633cc2f3e3U, 0x3c0e9824bcd0e1d2U,
  0xbc109265bd47e6bcU, 0xbb9b9f3dbd2021afU, 0x3d0a1ea03cf07a57U, 0x3d8abdecbb9f3e53U,
  0xbcef49263d2ebcabU, 0xbca63c413cb42244U, 0x3b32721e3d6157a3U, 0xbc7ea95e3cb74993U,
  0x3c9a9b543d682903U, 0x3c85aa89bd036e62U, 0xbcb8f913bd492144U, 0xbc805318ba266623U,
  0xbd01e9fe3cb7e42aU, 0x3c8cd350bba1b675U, 0xbd2abff3bc09b4b0U, 0x3c8faedebd194a06U,
  0x3c6d899b3d3c8285U, 0x3d2726763cc6aca8U, 0xbd090242bbd23473U, 0xbc56ad07bd13ed14U,
  0x3d081e393ccd1ae2U, 0x3cc89fd13c795a14U, 0x3c8c6782bd03ea5eU, 0x3c969f023d1e7c5cU,
  0x3cae121a3d18a2dbU, 0xbd1e3b223d3ce6b0U, 0xbae130233bdf3b92U, 0x3a8421c0bcd83e32U,
  0xbd04b7c13cedbf43U, 0x3cdb04853d62c18dU, 0xbc2462253ce59b4bU, 0xbcc37ef13da6db18U,
  0x3d4be7edbcd8a5e3U, 0x3c8c2e143d1f8b6dU, 0x3d814e663cb03bbaU, 0xbc1b998dbb57d0d7U,
  0xbd4cbde9bcf0da0aU, 0xbd350141bd368891U, 0x3bec9adf3cfd53baU, 0x3b11875d3d717d29U,
  0x3d2154463cbb4373U, 0xbd3095403d4dbacdU, 0x3abc5ff63d8dd70cU, 0x3d0f95163cd8e3d7U,
  0x3d2e8cf2bccc2263U, 0x3c4c49e83d062e30U, 0xbbc6adea3d1dba94U, 0x3d91a44fbcda5668U,
  0x3d79a513bcce9368U, 0xbc25091f3d827eb6U, 0x3da1ce033d39f5f7U, 0x3c5f709d3d3ff487U,
  0x3d46b3d03d2066eaU, 0xbc9acfc03c37bdceU, 0x3cfc3edd3d7a45aeU, 0xbd15904d3cafc390U,
  0x3ce28f83bca8e034U, 0xbce34a713ce99e04U, 0xbccc68d73cb45d3dU, 0x3d6a2465bd2160fcU,
  0x3c7a25943c8f5f2bU, 0xbd74fdc8bcf7cf30U, 0xbbb67ebdbcf5bbf9U, 0x3b8433883d042083U,
  0xbc8f40d43ae082eeU, 0x3cc87e433b6efbf4U, 0xbbd3c8703c64ffccU, 0xbd4f09d83d0dbc3dU,
  0xbd250ea13c921dc1U, 0x3d83ce6dbd133d62U, 0x3d499410bd139d41U, 0xbc97545c3ca9edd6U,
  0xbd0ae070bc802609U, 0x3ca8b6babd923d8bU, 0xbd7ebd783d2b3412U, 0x3bf68b3d3cccae51U,
  0xbc002d4d3d829a34U, 0xbc4f5aa9bc4e41b0U, 0x3d28746fbd3655f5U, 0xbb2b54c13cc8c6faU,
  0x3c91bd2cbd2502d6U, 0x3cd3e8763c8e8ad9U, 0x3d7e9bc3bc468cd6U, 0xbbf9d0de3cddb60dU,
  0x3c37a16e3d20e6dfU, 0x3b5fe4d0bca248b8U, 0xbd2daf43bc548084U, 0x3d4ef6afbd14fa5fU,
  0xbd11cb283d3ab27cU, 0xbd425cc7bd12d537U, 0xbc359b743ceaa54aU, 0xbd5eecc03ca198dcU,
  0xbb2840cc3cad6e1eU, 0x3b1522acbd5da288U, 0x3d32a292bd445db6U, 0x3da46360bc07843fU,
  0x3b9acf4ebd83cbadU, 0xbcb3867bbce38dc8U, 0xbd4b8e8ebd17aa85U, 0x3d87548bbcce893dU,
  0x3d442026bae39bc6U, 0x3cba12293d6062fcU, 0x3d0e7597bc8559d5U, 0x3cfb76b93c0486c7U,
  0xbd8566df3d3021c5U, 0xbd2aacf43d0fececU, 0x3cd4376d3cb9fd7aU, 0xbd066566bc912393U,
  0x3aa3488fbd2067d3U, 0xbcaacdabbb602081U, 0xbd82ec993c31cf6fU, 0x3d060ebbbd84b2a5U,
  0xbcca92df3cb35278U, 0xbd4d9e9dbc7cfd69U, 0xbce35f1dbcaae4c1U, 0x3ca1e7233cdaf4c5U,
  0xbbf7fc333c35353bU, 0x3cbf57a8bd233cfdU, 0x3d2301063d97bccbU, 0x3cd9cb493d41e43fU,
  0x3c77b9febbdc2f08U, 0xbd7acc34bcf5513aU, 0x3d10576c3d483cdbU, 0x3d7095473d162edaU,
  0xbd2049bebc0e3e64U, 0x3cd328773d51c19eU, 0xbcfcdae13d5d6430U, 0xbd4a17953d2e24c4U,
  0x3d57ad7c3c311adcU, 0x3d9523db3cf74569U, 0xbc10ca50bc5029c1U, 0x3d1dce9e3c538f5eU,
  0x3d8c07c93d0c3b72U, 0x3d3374b33b156c0bU, 0xbcab81d63c9164ccU, 0x3db0ec393d62c731U,
  0xbc4871a73c8b8fecU, 0x3d3a01babd176029U, 0x3c0653253d628646U, 0xbc8cf5163cc5ce36U,
  0xbc31ca043d123fbbU, 0xbd315d9db98c87dfU, 0xbcba4009bcaf83cfU, 0x3d13a37dbd0c4866U,
  0x3d81704ebc98181eU, 0x3c8b8a0b3c3ee2bfU, 0xbd74106f3d1a633dU, 0xbc707ea6bcdb91e0U,
  0xbc28608abd26144eU, 0x3bacdc623b5da3bfU, 0x3d40df2e3ba44036U, 0xbcd9ea5abca37fe8U,
  0xbd187e5dbcf3eb39U, 0xbbcbf2fdbd5cdff6U, 0x3d2cf8ae3a259076U, 0x3c9fa667bcf0adf1U,
  0xbbadd7343b50ad7dU, 0x3d2e24593cd1d4f8U, 0x3cda408a3bb88b31U, 0x3d928447bc83fe0fU,
  0xbcf03d6f3cf77771U, 0xbc2f6815bcd3b72fU, 0x3c63516dbd1596aeU, 0xbbc793a73db5d2afU,
  0xbc6d15623d291c1eU, 0x3cf4568cbc8b9e47U, 0x3ca7f69c3cc3cd2fU, 0xbdab21183c1fdfdeU,
  0x3d714d7f3cf76d89U, 0xbbae417fbce73fa4U, 0xbd330f153c6a3b2cU, 0xbd36dbd0bb2b0347U,
  0xbd1ac02dbd18281bU, 0xbc189a133b9e8812U, 0xbc19f6c9bcbd741eU, 0xbcaf3f5cbc7d479fU,
  0x3dc4d6823d5e2674U, 0xbd4688053b230844U, 0x3c940d76bc867465U, 0x3b4526dcbd07de9cU,
  0x3d63aa81bbe82d75U, 0xbd14f459bd0b46e3U, 0x3bf78ad43cb70c27U, 0xbd90c1253cd4f08aU,
  0x3dacfec5bd6ca417U, 0xbbdee1d4bbe91102U, 0x3cc3302f3d85b29bU, 0xbc8d2dbdbd254dd0U,
  0x3c8a65023cf48e34U, 0x3b841e713cb0898fU, 0xbcd672183d2c4080U, 0x3c30f8623cecb038U,
  0xbce1701fbcb9028aU, 0x3d13414c3d11436dU, 0xbc8d27debb041d7bU, 0x3c0813b7bd34cd32U,
  0xbc3a615a3d82d7ceU, 0x3cd81c92bd1b2402U, 0xbc7087753d3bea11U, 0x3cf296ae3c77901eU,
  0xbd4fc829bd059c95U, 0xbc57c1e1bcf5e21aU, 0xbc690e26bce4c31eU, 0x3c0a2b9fbcefd63aU,
  0xbd0c6bacbd6704caU, 0xbc18422dbd3351dfU, 0xbcda86bbbd40ef9fU, 0x3cda6986bcc6259cU,
  0xbcbe3e8e3d494eafU, 0x3c862ae83d855410U, 0x3bb2ef123cc1a2c1U, 0x3b956e54bc03ef6cU,
  0x3bb2bb39b9a0d45fU, 0xbc8c48cf3be21396U, 0x3d4b5f383d0b0c17U, 0xbcde043bbd1c7ef9U,
  0x3c969683bc66f696U, 0xbc4fc6723d16ca10U, 0x3ca49abbbcd9fd68U, 0x3c63cb593d0fc1e4U,
  0x3ab9806e3cafb63bU, 0x3cae22e3bd3f821cU, 0xbccde43d3c27295dU, 0xbc619086bd052db3U,
  0xbc1a7874396ba403U, 0x3c5b6e87bc24d4fbU, 0x3d410cc2bce208adU, 0x3a8f12883ca19f6cU,
  0xbd50a440bd2df69fU, 0xbd90ec76bd06485bU, 0x3cc50f35bc882d9fU, 0xbd42a65cbd71d13dU,
  0xbb8cc9273d50d527U, 0x3bf251123cbde454U, 0x3cdd3b64bd8c1b01U, 0x3c0282c9bcaff97bU,
  0x3c9bd7f4bc163414U, 0xbcd853dd3c48837bU, 0xbb266f103cf459ffU, 0x3c48d4a7bd91b151U,
  0x3cd637a23d865f58U, 0x3b62250e3ca492a7U, 0xbc8e40c8bcccee7cU, 0x3c1a7786bda6d819U,
  0xb936be683aaf8608U, 0x3d26906c3cb5223bU, 0xbcc21f57bd02ea07U, 0x3d1d297d3d5ca843U,
  0xbd3f98163d812a9dU, 0x3cbd5284bca4e41aU, 0x3d6568853ca8b5bcU, 0xbd1cb4e9bc08c064U,
  0xbcd345bfbb5ce4a0U, 0xbd2eb1333c8578e3U, 0xbd1b7124bbfbb363U, 0xbc66bbc63b98d3f5U,
  0xbc00a3223cb6796fU, 0x3c3026ae3dd39e91U, 0xbcda1ac9bd260ad8U, 0xbd03c8b33b70304aU,
  0x3becf7e2bb6bee2eU, 0xbd54f9aa3d74195eU, 0x3cd610cc3cae7179U, 0xbc2344cf3d45e59dU,
  0x3caa01953c22cf06U, 0x3d019ddb3c99be24U, 0x3d8a014dba181d61U, 0x3bad658bbc3f2d1fU,
  0x3ccd35e1bd19a3b3U, 0xbca8ed44bbe7b9d5U, 0xbc9ebdcd3d63fe92U, 0x3ca781b9bc05e78aU,
  0xbc399c5b3d3cf55fU, 0x3cb5f4953d519088U, 0xbd2f650e3cb2aa3aU, 0x3d5cc692bd023418U,
  0xbbe3360e3d1aa613U, 0xbc8b745fbc474d73U, 0x3cc3605bb9f570cdU, 0x3d4dec8d3d5b98f5U,
  0x3b62596f3d174e73U, 0xbd18768bbb967a1eU, 0x3bc68b293c6dff11U, 0xbd316a2b3ad5f65aU,
  0xbd0911c23a895f8fU, 0x3be3a81d3bd733a0U, 0x3c96aa393d168b76U, 0xbb50ff3cbcb4d881U,
  0xbc149e2d3ca30daaU, 0x3c77d99ebbdc9c80U, 0xbd695391bc4aa59cU, 0x3d0996ba3c403f53U,
  0xbc2c724c3d39dab9U, 0x3cb3b531bc4f00bfU, 0xbbdda659bc2ca80bU, 0xbd6d5203bd7fc97bU,
  0x3ca2962d3ca59e25U, 0xbd3d0e8a3c77ab6dU, 0xbcd160e33cc823a9U, 0xbd3463323d042432U,
  0x3bcc205dbc151003U, 0x3d65140f3bb5ccf4U, 0x3c63fc9c3d0aad10U, 0x3d38338b3c4c4715U,
  0xbca6bdfc3d3398c8U, 0xbc4d0890bd5581afU, 0xbd3527c93d1b130aU, 0xbb829c5e3aaca666U,
  0xbd143a0c3c2847d8U, 0xbcec9a21bce75245U, 0xbbde8e05bca92be0U, 0x3d8e423ebc00647dU,
  0xbd2bb24f3c197fffU, 0xbd0d5469bd07968bU, 0xbc7ae1333c5a39b8U, 0xbd20b6a8bd5b42ceU,
  0xbc557c1e3a071928U, 0x3b6675bebbf3e573U, 0x3cdecd87bc1b0976U, 0xbcd9bd63bd6892f1U,
  0xbd402b4ebd3604ccU, 0xbc3fb0d63ce9029fU, 0x3d22a4033d30cc7eU, 0xba506485bc65ae96U,
  0x3abe9c513d6337e3U, 0x3c25574b3cb8ceccU, 0xbb9a9dd9bc6964a9U, 0x3dc26f863d201d80U,
  0xbd002c113d33b966U, 0x3d28b5ca3ae274b8U, 0x3cdc6c7fbd88a6e9U, 0x3ce031fd3c16a815U,
  0xbd22e8073c63ee76U, 0xbd1731c2bc272095U, 0x3d11498cbcf9d15bU, 0xbaa4b28b3d545d40U,
  0xbd1ebb3dbd6e636bU, 0xbd36dcb03c855581U, 0xbd06ca363cbbda1fU, 0xbd419933bcece394U,
  0xbca124e23d4c95b1U, 0xbc1b69f33d166048U, 0x3ca39b583cbdbf63U, 0xbcb269c4bd31a2a8U,
  0x3d1a01f1bbed734fU, 0xbcaf54ca3d73bf9aU, 0x3b92a4d83c557759U, 0x3ca580163aa8da13U,
  0xbd50eb0a3c7b159aU, 0x3dbfdec0bcb27b97U, 0x3d011f203d1bc022U, 0x3d73faf13d4d1251U,
  0x3b15a5db3d2cf2f8U, 0x3d20a97d3d2eea33U, 0xbc8752ed3ca5cc64U, 0xbb421396bd13f688U,
  0xbd26ff893d234444U, 0xbc52f36ebce331c0U, 0xbbf9dc19bc19075bU, 0xbc46398bbc140f48U,
  0xbdb47cbcba48caf9U, 0xbbae4fc73ad14a1cU, 0xbb9e13ad3b0bd6dbU, 0xbc9dce4f3d0a328bU,
  0xbcb9e9cbbd1a3b84U, 0x3c90d58cbd194dfeU, 0xbd601e8d3d9f4b3fU, 0xbc2277c93d89dc50U,
  0xba9e094d3c08e0e7U, 0xbd0ce469bd134460U, 0x3ce85652bcfedb6bU, 0x3d582b2bbc06205bU,
  0xbb4573ddbc80083cU, 0x3b740f11bd7d8ae3U, 0xbd21cd76bd67cba8U, 0x3c81759fbc8f0a33U,
  0x3d4691db3cb33b60U, 0x3c4e28cd3d2229c6U, 0x3c9737b43c8965f1U, 0xbd599cd7bd675e39U,
  0x3c83b267bc6feed3U, 0xbd2629aabc99a956U, 0xbb49daa43ce9d773U, 0xbccfaee0bd1e67e9U,
  0xba9d31d1bd32bfacU, 0x3d1ef3b43d0d1549U, 0xbcf21ac7b9ea6cb9U, 0x3d23e6563bdb8060U,
  0x3cc15edd3cda7ea8U, 0x3c016bc33d16dc9aU, 0xbd3d9aa93d0dbbebU, 0xbc798d03bd8156f8U,
  0xbb8f91243c9765d3U, 0xbc8f6440bc0a680cU, 0xbd87d2a8bd08c99bU, 0x3d4a7f8dbccbefb9U,
  0x3d11749a3d19f516U, 0xbca3004fbd176262U, 0xbc5fd651bc67d675U, 0xbcb6c7443c4d83a1U,
  0xbb3a5055bcdd074aU, 0x3d085dde3d11affcU, 0x3cd4bc58bdafe0fbU, 0x3d5a13bb3d254d43U,
  0xbb92fbb2bd1c855eU, 0x3daf9b89bcbfc5f4U, 0x3d9503cbbc336d9dU, 0x3d556f0fbd16372eU,
  0x3c5c8a193da216daU, 0xbd016400bd77bad2U, 0x3d3f19acbcdcc805U, 0x3d84a9d7bcde60beU,
  0xbc77a8a1bc91d608U, 0x3d1dc000bcff2516U, 0x3d3891febcba8e68U, 0x3d31138d3d377a01U,
  0xbd31316f3cfa7d11U, 0x3c5ac4373ccf136fU, 0x3d0a0481bb1de52fU, 0x3d9654a0bd08ddb6U,
  0xbc61b60f3d6017a4U, 0x3d2ed5d63d5e3cffU, 0x3c43b58e3d22a5b3U, 0xbc54a3063dc3b6e4U,
  0xbb2f05d0ba367bd5U, 0x3c1de3ea3d89c28fU, 0x3cc404a4bc259ad1U, 0x3d170bc4bcf95dd1U,
  0x3c13b901bd1a59c9U, 0x3cc7e4383c495fe2U, 0x3d1dd3acbd11f2a4U, 0xbd4f892bb9dd97cfU,
  0x3ce5b4f13d950cc9U, 0x3ace4215bb3f4bb2U, 0xbbed21193c53b7ccU, 0x3d7220b53bb7b296U,
  0x3c94af883d223cdfU, 0x3d2255c53d25d3a2U, 0xbd38bc76bcfcf640U, 0x3bc6cd173d16c37aU,
  0xbddad7873d450b33U, 0xbd3460aabd0fbee2U, 0x3d5964f93d1b0cb2U, 0xbca33d033c954442U,
  0xbd6dffe1bc90d031U, 0x3a79d9b63d248f3dU, 0x3bbbfbef3d21a873U, 0xbdbb82903ca04715U,
  0xbc36959b3d4c4191U, 0x3d0c3bb7bcf89b44U, 0x3b50d94a3dacc425U, 0x3b8514be3d0a09d1U,
  0xbd5720db3ccb1092U, 0xbb4b96b73c27da06U, 0x3ceb0b023b702ff3U, 0xbb99ef63bc2bc531U,
  0xbd14783ebce39d17U, 0xbd484c1dbc23d559U, 0xbcbede17bba1788dU, 0x3ce5a63cbd155560U,
  0x3d806dd63cdb6ccbU, 0xbd2de6c13d022525U, 0x3bb583263b261e77U, 0x3cf6b36fbc25141dU,
  0x3b1905163c326c11U, 0xbbb39f53bd612d48U, 0x3c3d06c1bd437a92U, 0xbd34f781bd0b7f5dU,
  0xbc256ab8bd52d2deU, 0x3a3443f6bbf7efd0U, 0xbd59701f3bb69392U, 0x3ce095a2bc6b68b4U,
  0x3d4c13753c847cf9U, 0x3c7b3a4dbd21e87fU, 0xbd83b4553d4db760U, 0x3cfd730fbdc0e1a3U,
  0x3c06cc8fbd107d4dU, 0x3d40eb4ebda58f65U, 0xb9dbcb213ce55e6fU, 0x3cc7abfa3c372c00U,
  0xbc8a51d03d6758f4U, 0xbc2ae8e33c732565U, 0xbc9bb7f5bc34076bU, 0xbce409e7bd077ac9U,
  0xbc0cc1e9bd58ff7dU, 0xbad66f923d0bdfb9U, 0x3b6648e0bd0d145bU, 0x3cdd3520bd3dfb2bU,
  0x3be704c7bd544f8eU, 0x3ba3a1e8bbc65a82U, 0xbb236b22bb10839cU, 0x3af87bf3bb6cf78eU,
  0xbc9e42dc3ce9869cU, 0x3d020f0e3cfe5f98U, 0xbd1c42b9bd6ab9d2U, 0x3d10374f3cb9394aU,
  0x3c9941c03cb7d8b4U, 0xbcb1a9f9bd38f337U, 0x3d3ec4db3bf6d3c2U, 0x3cd870c5bb139eaeU,
  0xbce396dabc6157a9U, 0xbc81d4c6bc5437e8U, 0xbd1e42233cd39b20U, 0x3bfe49f93c8fdc51U,
  0xbd51e7acbda326e9U, 0x3cbce97a3ccf5235U, 0xbd08f357bda04a14U, 0xbce38bdd3d2743d6U,
  0xbcf9031f3c3c97caU, 0xbcb0e64dbcb2e430U, 0x3c7a4b86bcec84caU, 0xbd1531b43c8895a8U,
  0x3cddd9833d1ab0bdU, 0xbd7a27debb49958dU, 0xba7ff867bd3175c4U, 0x3cb105193d99ffa8U,
  0xbd7ea33cbc92dacdU, 0x3d85f7a83d4dcf84U, 0x3d03a9dfbd9b64f0U, 0x3d6c18d83c762893U,
  0x3c170114bbf4ea73U, 0x3d1c05c4bcc41e5dU, 0xbd10ec04bb448e66U, 0x3d0ea7d63bc5d337U,
  0xbd171f1a3ddc9b75U, 0xbcf21f093ca351e8U, 0xbd2b0eab3cd7ee66U, 0xbc93f93d3d4c865eU,
  0xbdec04ae3cf00658U, 0x3b99aaca3d8cdaf3U, 0xbd168deebc41503aU, 0xbd8df4a33c8fb4daU,
  0x3d798cca3d699052U, 0x3d5fe9fabcbd642cU, 0x3ce97a5e3d5f2535U, 0xbc886786bc993e49U,
  0xbbebb75dbc5f42a7U, 0x3b37ae873cfca0e8U, 0x3b9e8f81bc865de3U, 0xbbc12515bd31af31U,
  0xbc8a982e3c2763c9U, 0x3bfb7d1bbd3d271bU, 0xbd321a603c8d0fb7U, 0x3cba5bd9bc96013eU,
  0x3cf8c2bb3d598ae7U, 0x3cba7cd83aaf426eU, 0x3d8ff8aabd1c9806U, 0x3cae197ebd85db13U,
  0xbd47f1cd3ac1c3c3U, 0xbc72c7dfbcc19de0U, 0x3db4a787baff0051U, 0x3bb343f7bdc011fbU,
  0xbb4829b43bd709baU, 0x3bb6764e3ce1a52aU, 0xbd07221ebcafed55U, 0xbabdc5b5bbc93f2dU,
  0x3d0634913c0a9c72U, 0x3d0d111abd2b84a8U, 0xbd850bae3d9319b1U, 0x3d140c81bd83c541U,
  0x3be524b6bcbbc52cU, 0x39f767e1bd11ad4bU, 0xbc41fbf8bd2d6ba5U, 0x3b7db5b13d0995ccU,
  0x3bb8bf4f3cc7d742U, 0xbc7383fe3b921890U, 0x3cadb978bd55b250U, 0xbc523efbbc990efbU,
  0x3cbc1187bd567864U, 0x3a46a9ad3d14864dU, 0x3d64df93bdbdad25U, 0xbc1a4bcb3d1f326eU,
  0x3d15a36cbcc9d2d7U, 0xbd1ba3dcbca796b8U, 0x3d1e9197bd432ed4U, 0xbd8292f93d3d9092U,
  0xbc8e9d01bd68ea40U, 0xbc3cb6243d858826U, 0x3c94513fbbd9b78dU, 0x3db6ba683d8fd6c2U,
  0xbc7851d4bccc3a3aU, 0x3a72a3b6bda69a49U, 0xbc51b3013d7f691dU, 0xbcab44a53c98cc9aU,
  0xbcb1c6eabbf894ccU, 0xbd0d68b7bad1edc8U, 0xbd16e51b3bc7b790U, 0xbd0244c7bc2776e0U,
  0xbd266cdcbd40baefU, 0xbd88178d3d307c3fU, 0xbba904cdbcac402eU, 0x3d0226183bb6a956U,
  0x3d152f9a3cf141caU, 0x3d41ef10bc47bf41U, 0xbc9892d9bd7f161fU, 0x3db7c105bc787e46U,
  0xbd39ea0dbc17d4e8U, 0x3c0850403c251a4fU, 0xbcbf00b6bd432139U, 0x3b10a7423d667810U,
  0x3d170792bd8bc4ceU, 0x3c5444bd3c2a2b60U, 0xbd2589b2bd051733U, 0xbce455553cd42cdfU,
  0x3d600606bb761a95U, 0x3d2b73edbd42e115U, 0x3d9b9da9bbacf8fdU, 0x3d72efebbc6526f1U,
  0xbc8953783d09b569U, 0xbd460f6c3d3d3818U, 0x3cd4bbcbbd089bd2U, 0xbd773681bb868f50U,
  0xbdaec1243ca3bbddU, 0xbc894b973d241c1aU, 0xbc4079fabca8f985U, 0x3d06afdb3c0d94c5U,
  0x3cc48ba03d8c51c0U, 0xbb73e09e3c0f8315U, 0x3cc425f23ddb984cU, 0x3d8ee89e3d4cb5e6U,
  0x3d04edecbc8df544U, 0xbd0cb967bc00133bU, 0xbc9379bbbcd4ab0cU, 0x3d6997f9bcead49cU,
  0xbd7570f43cc170f1U, 0xbc504d6e3af72792U, 0x3cdd023ebc1e1c1dU, 0xbd46ef4c3d0faf7eU,
  0xbaf15bbe3b9c5252U, 0xbc1105debd045660U, 0x3dc2b23a3cb8e17bU, 0xbced2626bc932868U,
  0xbcf896333ce63141U, 0x3cb35efe3baf64e5U, 0x3d9ec1c53c8eea60U, 0x3d198fe43c053ffaU,
  0xbcafbfb5bd1b50a2U, 0xbc9303b6bcff3738U, 0xbcffd784bd200028U, 0xbcc54c95bcd42a11U,
  0x3cb8b3e33ceeed57U, 0x3d4918093be59c21U, 0xbd3662bcbc97fdd3U, 0x3be1bfa7bccd53d8U,
  0xbd4587d1bb465638U, 0xbbd7daedbc164ae1U, 0x3d0c2877bd2ebc96U, 0xbc66d842bcab4307U,
  0xbd39e5bdbce2f408U, 0xbd81615ebabf4255U, 0x3c60a46d3d25b5e7U, 0x3c35a206bcece937U,
  0x3d09e5603c46020cU, 0x3ba21b97bbad888dU, 0x3d664e22bd40aa9bU, 0xbd24d6bfbbad9521U,
  0xbd50d216bcd9d079U, 0xbd1cffdbbd9b6888U, 0x3d70d24cbd20dae0U, 0x3d1c87163d7e61c0U,
  0x3c5d7bff3c4b666cU, 0x3bb4e63a3d21e577U, 0xbd10b1e43cf4545fU, 0x3d947060bc86d203U,
  0x3ba96cbcbd38b5a3U, 0x3cc00fc5bd2c50eaU, 0xbc76ded23c980e26U, 0xbb7bb307bd7e2747U,
  0x3dbe52b73cab5eecU, 0x3cb27c663d323aaaU, 0xbd3ed2803d898601U, 0x3cd6f4f13c1fc8a0U,
  0x3dabb325bd31a853U, 0x3c0187c83cf178b7U, 0x3cccc7ccbcfa26e0U, 0xbc7f45923c059890U,
  0x3ca222e2bc61f30cU, 0x3d1bb59abbe438e9U, 0x3ae120233b98e064U, 0x3d4063d3bd080017U,
  0xbddc6c163d0635bcU, 0xbd25ff27bd077aecU, 0x3adab45bbcfefad5U, 0xbd5c9a65bcdf47dfU,
  0xbc8d14c5bdc1e6faU, 0xbd23e8e03b832e07U, 0xbd89b4043d0ea551U, 0x3c3e3b52bbf5e84eU,
  0x3caf9f743d0809e4U, 0x3c97646c3d1795e8U, 0x3d565ab33d88a83bU, 0xbbd195193ce375caU,
  0xbd0c05133dd31093U, 0xbc8b2e463cf3948dU, 0xbbfd0dd3bd0bb684U, 0xbd252f063cc12602U,
  0xbd202ac9bd1df69aU, 0x3d003cf13caf6b85U, 0xbcda48703c8e46e7U, 0x3c6dd4a7bd2d5f57U,
  0x3bf52a00bd421b55U, 0x3d67a6febbe6cbdbU, 0x3c622b223da17987U, 0xbd4c7c9d3c9428f3U,
  0x3d0339973c7e7d89U, 0x3ae8991ebc9739d5U, 0x3a8be9ca3cc96ff6U, 0x3d205bf3bd1f9d6dU,
  0xbd8d83d43d1f36f8U, 0x3c9c72c0bd2c0797U, 0xbd03f954bd0b38eeU, 0xbcf17db53cb2d160U,
  0x3d383e1f3abab7a5U, 0xbceedcc8bb6d858fU, 0x3ddab3233ce567d4U, 0xbb001c05bcbfc82fU,
  0x3c74e7f9bd35d9dcU, 0xbc1f37293d22e984U, 0x3d60d2a4bc60bf8bU, 0x3dadc1073ce5c223U,
  0xbb86f5c33d2da381U, 0xbc98e0143c3f72efU, 0x3ba5c577bc69b402U, 0x3d06fe4ebd11fa85U,
  0x3d237841bd470de8U, 0x3b7d6090bd6c7263U, 0x3c914946bd0ab75fU, 0x3d52497b3d3d1316U,
  0xbd108314bd1275f8U, 0xbdc88a6abd400c5cU, 0x3d05bdc0bcf7999eU, 0xbd8ebddf3c889f02U,
  0xbcee2528bdc9f581U, 0xbba5b1c43bc2d9deU, 0xbcac84743cb08ba2U, 0x3b806a56bbd671d5U,
  0xbd208326bc9356d6U, 0xbc3bab62bd29dbb1U, 0x3c9d3bcbbcd52b9cU, 0x3c85f8d2bd1cc27fU,
  0xbdb71563bd590c63U, 0xbda003efbd402da1U, 0x3c842738bc53d3fdU, 0x3caef4c43d604814U,
  0xbc8febfd3c974587U, 0xbbf18cdb3d51d4cdU, 0x3ba84eeebd115676U, 0x3d0dfdd03d1d1f2bU,
  0x3c815d30bd918423U, 0x3c945174bcc77dc2U, 0xbb58c9fbbc4db71dU, 0xbd2060f2bcc18278U,
  0x3cb39bcf3d58c916U, 0x3c880067bcbdc758U, 0xbdbaa9523d199003U, 0xbc876ad0bd23066fU,
  0x3db78b093d356700U, 0x3d76f5993d928681U, 0x3d194e113c4c2e4eU, 0x3d502dbe3d8a5f64U,
  0xbc54b350bd64f4b2U, 0x3d417322bc0614b9U, 0x3cb4a8913b994c99U, 0x3ddd888d3d15c5dfU,
  0x3b8a77033ccdf621U, 0xbce094683c5d910dU, 0x3d743141bb6ace4eU, 0x3c732d4d3d801b0cU,
  0xbddd52dfbc74b13cU, 0x3c2fe99dbcfc54d2U, 0xbd36e7853c963123U, 0x3c856613bcda14b0U,
  0x3d89c5fb3d5baf0dU, 0xba3921d0bd68b3eeU, 0xbd1baf603d1d4f73U, 0x3d80065f3d09444eU,
  0xbd0769673c8784e3U, 0xbcc1c6a53d3a230cU, 0x3d742e0cbd174554U, 0xbd95cac6bd010eb6U,
  0x3d20b0db3bedad63U, 0x3ba4ab273db66373U, 0xbdd0867cbcc9309aU, 0x3b107d91bcaf802eU,
  0x3d4175123c8e8f5dU, 0x3cb61d2b3d1c232cU, 0x3d7a30ac3c3992cbU, 0xbc6a448cbbf985bcU,
  0x3d12b4c83ce209cdU, 0x3c880a6f3ca31d5dU, 0xbb893f7cbd90134cU, 0x3cd1d4efbb8d7c96U,
  0x3ca4cb8dbc24b747U, 0x3bffd152bd846295U, 0x3c73409dbc27f81fU, 0xbce45a553bbd6777U,
  0x3d9a34f93c0f8357U, 0x3d37bebf3d01a68dU, 0x3d882effbd16b45fU, 0x3c911b48bc33924eU,
  0xbd103008bc88a198U, 0x3c84bdc03cf525ddU, 0x3cc72cf53a830e7fU, 0x3d08ed193d04ad48U,
  0x3c8cd1eebc323940U, 0xbb370b48bc5837b6U, 0x3c1a3e10bd3bad99U, 0x3d62e651bd28ef43U,
  0x3d5251a93c4aa784U, 0xbcc8834b3c0d5895U, 0x3d54fae5b981b6f2U, 0xbc830e703be48c40U,
  0xbd0adaa33ca4519dU, 0xbbb6e418bd45a75cU, 0x3d98596bbcaaed42U, 0xbc0e57723c7ac9a2U,
  0xbcb14774bc3a1b15U, 0xbda66ab4bc316878U, 0xbd19dadabd027b3aU, 0x3d0366733beba02cU,
  0x3d6c70cbbcbc85a6U, 0xbd30d7063d79a667U, 0x3b70e8373beba86dU, 0x3c82fa123d5d3be3U,
  0x3c02772c3bd4b6d0U, 0xbc82b8c73c5a2defU, 0x3b071eddbce7ac52U, 0xbd58fb1dbc8dae65U,
  0xbd052332bd43bed1U, 0xbd2d23dfbc1fe90bU, 0x3d08cd2bbc8982dcU, 0x3d81641b3c1c3ebcU,
  0xbd0204723d3a710dU, 0xbcbb8cb9bd4cf1afU, 0xbbb485cebd1ddc7aU, 0xbcb9666bbb20c849U,
  0x3d409575bc3157acU, 0xbb54e1033cfbd9e4U, 0xbc7a8ca13de79f12U, 0xbc0a02913bb3687bU,
  0x3dd1ce393dae50a5U, 0x3d613a123d857a1fU, 0x3ceadf61bcd10377U, 0xbc839f843d88cf14U,
  0x3da3d291bd75e444U, 0xbc5d6151bd8c8bccU, 0xbd0f67e13c332963U, 0x3d7a4a1d3d2c7237U,
  0xbdbab9923d043844U, 0xba9ea2dabcbdf8f0U, 0xbc7586e93d0e0999U, 0xbda8ecef3d3a7ae0U,
  0xbd93e006bc148e97U, 0xbc07f82e3b1d4239U, 0x3a8131283bc3e655U, 0xbd6cfcc33d1808a5U,
  0x3d83970f3d44d371U, 0x3d0a3eabbd40185bU, 0x3beec4493d9948aeU, 0x3d9c230abcf1900aU,
  0xbdbbfa163d9c1362U, 0xbd5565eabcd5cc65U, 0x3dcbc51fbd2e68c8U, 0xbcb358b33c207d55U,
  0xbcfd2498bc091062U, 0x3d38a0e93d93252eU, 0xbd2d0ffebd971e9aU, 0xbd7284ad3c19acdcU,
  0x3d210412bccf6229U, 0x3aac196ebbae8466U, 0x3ab032663d9d4bd2U, 0xbc969807bb848790U,
  0x3d162a3b3cd53615U, 0x3ceab9003cb2d090U, 0xbcb0f0803abbbf0dU, 0x3c9890eabd356d1bU,
  0x3d5e8f16bd1976f5U, 0x3c6c363a3d411e3dU, 0x3c8c851e3c6768c3U, 0x3d56fb473c97d372U,
  0x3ba2741c3bd435beU, 0x3d05dd823d23b07dU, 0xbca157ffbd1b16b1U, 0x3a92c9553c180870U,
  0xbd1d0d9c3cd021ebU, 0x3caa1f0f3d487602U, 0x3d93fb14bc971b64U, 0x3bb235a7bcb44e49U,
  0x39ff4348bce744aeU, 0x3cdec2a63d2ade42U, 0x3cda221a3d806e2dU, 0xbd541dcc3d3f0955U,
  0xbd2752dc3a9817e8U, 0x3d545b5bbc2d92c4U, 0xbd14a235bd3f79fbU, 0xbbadb1cdbcb7d7f6U,
  0xbc0eb19fbcb780daU, 0x3cb59a62bd1f1d70U, 0x3d492c123ca9b44cU, 0xbcaa78d9bd40ef63U,
  0x3cd05e473ce415c6U, 0xbd15bdd6bc770c00U, 0x3d0449b23d5d03a6U, 0x3cbbb037bc3351f3U,
  0x3c70e2ecbb36e8afU, 0xbd6460c2bc21568dU, 0xbd0b27d03d3deb6bU, 0x3cb64f953c30decdU,
  0xbc8babb43ca3a089U, 0xbce7aa43bca15cbeU, 0xbc83ee0e3c12b404U, 0x3d20a5b93d797292U,
  0x3cd45239bc9b3340U, 0xbd574941bbc146cdU, 0xbd15d6383c2805f9U, 0xbd005c383d488bf2U,
  0xbd231922bb2115d6U, 0xbc883dffbb844e15U, 0xbd2381a03c36efc4U, 0xbd8f1307bcce24c1U,
  0x3dc2c580bc187e39U, 0x3d2064453d449f19U, 0x3bbd04933db39a40U, 0x3c7171603d3ed81bU,
  0x3d134c343da01ebcU, 0x3d0424973d267f6fU, 0x3c872e88bc81dc9eU, 0x3d9a04873d64470fU,
  0x3d96c3243d11bd2aU, 0xbd030ff6bdaebed9U, 0xbbb69db13db1c6a0U, 0x3d0757d93d620883U,
  0xbd9cd33ebc1503e7U, 0xbd488bd4bbed5737U, 0x3c767c0ebca7d36eU, 0x3d04460dbc037b87U,
  0xbdaeb4edbd099ae6U, 0xbd96c5bebb5a42a9U, 0xbc9743a43d3fae4aU, 0xbd84199ebcd4590fU,
  0x3dd55527bc7ef457U, 0xbb60d2eebdf5e559U, 0x3d4760783d6baf40U, 0x3d3b18a93c242513U,
  0xbd3ffece3d923164U, 0xbd5cc9f9bd4a5510U, 0x3dade07fbd5f9bdfU, 0xbdb6d97bbc7a52bbU,
  0xbd962657bda4038dU, 0xbc856df63d27676cU, 0xbd757a9cbdda0001U, 0xbdf5aa963d0b5f25U,
  0xbc8574e13c2d698dU, 0xbd13142c3d33ffd3U, 0x3d96e129bd10596eU, 0xbc71c8193d4cc567U,
  0xbca0dfcc3cdc0813U, 0xbbf84ecd3d9073b8U, 0x3c5127ddbd669613U, 0xbcdb06e9bd83bbdcU,
  0x3df5631abc4c01e2U, 0x3aa29cdebd6f70bdU, 0x3d54d3413cdaf752U, 0x3d0854fc3d43542eU,
  0x3d04a32d3cf8e316U, 0x3d16d9c73dadf8f0U, 0xbd039cc63bfb4231U, 0x3d2446c33d8a74c9U,
  0xbcf20f57379cb52aU, 0x3d12fbbabc5abff1U, 0x3d72209abd778635U, 0xbc7ae47cbc55e86bU,
  0xbccff6c9bce3b820U, 0x3c78d8613d3d575cU, 0xbd8c5a2b3d5dead0U, 0xbcab5832bd507effU,
  0x3c40c044bcb502daU, 0x3d29fe80bc895e58U, 0x3cd5c0a6bcb96698U, 0x3c7e27d0bcc3bed8U,
  0xbd25276e3c73c66bU, 0x3c7e691e3d4e59d2U, 0x3bdd3ffbbb9877c9U, 0xbd0da292bd246954U,
  0xbad375503b860bfcU, 0x3d066f02bd26c2f7U, 0xbd28eb9d3baa40dcU, 0xbde6e231bbab79a3U,
  0xbd0f565a3da6d72bU, 0xbb48b2b13d5e8d84U, 0x3ab716293d82e6deU, 0x3d6104913cc0b796U,
  0x3cdce5ff3d89afc6U, 0xbd5cdb04ba0136deU, 0xbd84733dbd166e8eU, 0x3cf38d693ae94ad5U,
  0x3b6dc9e63d5df4abU, 0x3c7390363d2d90abU, 0xbc84127abd2a5781U, 0xbc5f1943bb9abb76U,
  0x3d376b343cdadca8U, 0x3b2f2ff9bcbd0a80U, 0xbd4ce538bb1d0f6fU, 0xbd04e07abc3948e0U,
  0x3ce605c0bda4905fU, 0xbd2a70fcbc8bed7cU, 0x3d8ca682bcb5b992U, 0x3ce00a643d2c61eeU,
  0x3db0969cbd163593U, 0x3d44f7c93d0ccb69U, 0x3c120d54bb2d13aeU, 0x3d9aa04b3c6aa1ccU,
  0x3ca1fcfb3b04310eU, 0xbc0649eebd6d6f2fU, 0x3c0ccdbd3dd5d513U, 0xbcb132483c2180ddU,
  0x3d7653cf3c8934eaU, 0x3ce310f2bbb5cc70U, 0xbc96a475bc94083eU, 0x3d43b40bbcabf3d9U,
  0xbc636caebd4bc782U, 0xbc9313e4bc47b0b1U, 0x3be36965bd0dd533U, 0xbd22d0f1bc73c1b9U,
  0x3db96fde3d1cedabU, 0x3c94af753b9bf46cU, 0x3d09a0a53dc685f2U, 0x3ccfd53f3d034993U,
  0xbb1eca2d3dfe17f0U, 0xbc9adf31bd1f7b8bU, 0x3d1a507d3cf67706U, 0x3d3d6aaabd2d3719U,
  0x3ba2acbfbc8f02a9U, 0xbd3c77eebc9d904fU, 0xbd09636ebd3b286fU, 0xbca57ed3bd99fd30U,
  0xbd4e422c3c03f823U, 0xbb3a80a33d05aae2U, 0x3d10e782bd55f840U, 0xbc46ab533cd47b5fU,
  0x3c6e105b3a4c1518U, 0x3c4f0a033cf69264U, 0xbbe71341bdd017bcU, 0xbd55df263d937a81U,
  0x3e01bb07bce45027U, 0xbc2bb9af3d21c440U, 0xbc138ca73ce8015eU, 0x3ba5a5993d1a9efcU,
  0x3cbca2b8bc24f51fU, 0x3af524543d8ad2c3U, 0xbc008500bdb73197U, 0x3cd98f7f3dc3efddU,
  0xbce8c48d3d5c27b9U, 0xbd006635bca7fbc7U, 0xbc13a6b5bd4cea7fU, 0x3c851cc23d1ae78dU,
  0xbd3585643a228957U, 0xbccb9fc13d2a4d68U, 0x3c2da21f3d8c625eU, 0xbcf72be9bd8edac4U,
  0x3cdc72fe3c785c7cU, 0x3dc3a8f13d153735U, 0x3d03f207bd969316U, 0x3c90a8c1bc858097U,
  0xbc5f2e10bd3cf873U, 0xbcc0aa033d862584U, 0xbc976764bd713696U, 0xbd9637213d3be88dU,
  0x3a5443173cb9e292U, 0x3d4579b4bc58175eU, 0xbd04e7003c06fed7U, 0x3d5d0241bcac5709U,
  0x3c86ce6b3d1df86eU, 0x3d8459363d58098eU, 0x3d07e779bd2ccf5dU, 0xbc990e513c9e8e76U,
  0x3c75e5633c6af76aU, 0x3c926ce9bbc6dbfaU, 0xbd91920c3bf85df7U, 0x3d76adfbbcb7d843U,
  0x3d8e45aa3b12dbe5U, 0xbd344881b9be7718U, 0x3caf472b3b765a3eU, 0x3cfff3dcbd2487bdU,
  0xbc367488bc372e74U, 0x3d03d4e1bcbfaa1dU, 0xbc238ae9383a7d89U, 0xbc25be023ba449fcU,
  0x3c826542bc8c9289U, 0xbd552e3d3d08d7b4U, 0x3c851f293cbad38aU, 0xbc78c10f3d08f4c7U,
  0x3c4b1ae73a91f082U, 0x3d85ce223bfedf4cU, 0xbc29832b3d0260b9U, 0x3d88a5a13d8af726U,
  0x3d7fedefbc38e67fU, 0x3d2522e53d7844eaU, 0xbb6350ac3cc238f7U, 0x3cab1946bc4cc1ecU,
  0xbc4276a5bd0b15cbU, 0xbcfc72d1bcf33ccfU, 0x3cb7ba5bbd31a4f7U, 0xbca738e53d687527U,
  0xbd898708bd02dd2bU, 0x3ca3e684bc3dde63U, 0xbb784f38bc4d48fcU, 0xbc54b2d8bc0c050aU,
  0x3d31e41abc99619eU, 0x3d0184b3bc706db5U, 0xbd31f6943d726cb6U, 0x3c88f28f3d1cb97cU,
  0x3b9ef8df3db31fc9U, 0xbd6c66bbbd10f010U, 0x3bd0502c3d27d3d4U, 0x3c43ba91bd363dd9U,
  0x3b1fdcd6bacfa534U, 0x3d22e958bc6cf904U, 0xbd131a96bd750cbeU, 0x3c73fa3e3c8980e1U,
  0x3c3d4f583c51d9d6U, 0x3cfe6a343d631e14U, 0x3c3cbe5dbcac7f30U, 0xbc9f868bbcda69d1U,
  0x3cb1c6c4bd2bf899U, 0x3da2e8ed3cbe89a5U, 0x3cf44de2bdabf7d5U, 0xbcb69f543d7592c3U,
  0x3e45150ebca4c502U, 0xbc072940bcec1a1fU, 0x3cca169bbd19c621U, 0x3cd799eb3db7c9d0U,
  0x3c76da64bb4edde5U, 0x3c86ba153bd90b3bU, 0xbd29f837bab12a69U, 0x3ca1af933dcd9471U,
  0x3cf621f73d6227aeU, 0xbd03c1023b2e31a8U, 0xbd87196dbda434c4U, 0x3c91f2cbbca5fd48U,
  0xbc71bb653d02190cU, 0x3cc3660f3d20f1a7U, 0x3d30af923c3f66f0U, 0xbd5a73e4bd46dc0eU,
  0xbd1ca0c03c3da870U, 0x3d1c4901bc74f03dU, 0x3d2a567abcf230deU, 0x3d8367b8bda38f5cU,
  0x3c96625dbc8bc296U, 0x3d0e812d3d353119U, 0x3aa065283d2edfcfU, 0xbd58d719bd0c6568U,
  0x3d223efa3d705ac1U, 0xbd1f3d0d3d25f49bU, 0xbcac1b203d5229adU, 0x3b258bd1bc8b70eeU,
  0xbb5c27413d07a87aU, 0x3d00e5913d4320c5U, 0xbcffb4cc3d95e55bU, 0x3d17311b3d92b94eU,
  0xbd797ff63d961d71U, 0xbcfbd4073d7174abU, 0xba303943bc924a0cU, 0x3d1f21febce4c306U,
  0x3db0edf03d51b31aU, 0xbd8b9e67bd824151U, 0x393661133cb3a66dU, 0xbc693cff3c919c8eU,
  0x3d386d4fbd3376b0U, 0x3a2e50213cc2d764U, 0x3d84faddbd7cfa69U, 0xbd1ad73dbc34884eU,
  0x3d30e66abc8857f6U, 0xbbe0c5c33d336f21U, 0x3cbd6ddb3d1425e9U, 0xbd81d2803cad8a51U,
  0xbbf5c1013dab80a7U, 0xbd787d5c3d7d64edU, 0x3ce37b383d1a735fU, 0x3d507ce93c92c7aeU,
  0xbbb96c21bd352e80U, 0xbd3167dd3d2d210aU, 0x3c2ddc0f3aeca909U, 0x3c1e44e43cf1fae2U,
  0x3d4a21b63d5261c2U, 0x3d2b422cbb249a35U, 0xbce524943d4200d7U, 0x3d6567e63bf830e2U,
  0xbd90d218bd37c54cU, 0x3c7e15733c0f11c4U, 0xbcae3c73bce46e3dU, 0xbd32948cbcfa72a9U,
  0xbc87d530bc338c20U, 0x3cbfe385bcc447fbU, 0x3cae01dd3da23e4cU, 0x3c185f463adc51b3U,
  0xbd3d9a7f3d21b7e2U, 0xbd1d3d1a3db04351U, 0x3d65dfa63cab3ac6U, 0x3b6077703cddca8bU,
  0xbd50f23abd2e7fe9U, 0xbd45cfd2bcaec593U, 0x3d467721bb90adbbU, 0xba8972823cce7996U,
  0x3d1e83833cc9d21eU, 0xbd4705b7bd4bef61U, 0xbd133ee83d42752fU, 0x3c893ea8bd03dce9U,
  0xbc404dc1bcac0610U, 0xbc9be913bd56f79eU, 0x3c242aa7bd190162U, 0x3d349ac4bc988e96U,
  0xbd372e3ebc921cf2U, 0x3c2b1d63bc5b6299U, 0xbd2b8a2c3d0373d1U, 0xbc155e4abcaf6e1bU,
  0xbc9e490dbd6e58f6U, 0x3c387e083d4cce2cU, 0x3d15bc5dbd355ecbU, 0x3c939c52bc9dd34dU,
  0x3bec9750bd464e81U, 0xbcbc757c3d2fe9f6U, 0xbb9df9cb3c8898c4U, 0xbd7715efbd789ed5U,
  0x3b5c7c2f3a38ef41U, 0xbc73190ebd4f3d06U, 0x3ceede2bbc62be0bU, 0xba0c0125bce5f81fU,
  0xbd1418dbbd13bd13U, 0x3cc070a0bd296c4aU, 0xbb4aee38bdcfedb4U, 0x3c5a08923cd74139U,
  0xbd2e50b7bd37d24dU, 0x3b681d3e3c54d541U, 0xbd9614823cc2aa2dU, 0xbcf2fa66bcd817e8U,
  0xbcefcd6bbd9023eaU, 0xbd065320bb348be4U, 0x3c703cdfbcbf60a6U, 0x3c1e569e3b1f845cU,
  0x3d7c690ebb411b99U, 0xbcf88999bb87d588U, 0x3d114b7cbd1e8d0cU, 0x3bda42e0bc25dd4aU,
  0xbd0c9200bd76782aU, 0xbd14353ebc76b8c6U, 0x3c847e66bd2fb6abU, 0x3d0fce993d1434d3U,
  0x3d232630bd6ac084U, 0x3cc75a18bd2f4b1bU, 0x3d2dda323c9221feU, 0x3d78f48b3cd5eeadU,
  0xbab0815abd1bbdbfU, 0x3ca5ad11bd837b38U, 0xbcd2bb0f3cc07d91U, 0x3cb44ce0bd80bf3fU,
  0xbcbb8abbba8470a8U, 0xbd1af194bd17b062U, 0x3cbe2bae3cb87171U, 0x3d6950c13d280ef7U,
  0x3cdd1a80bccb1106U, 0x3cfbb5d53b80f9fdU, 0xbd3393e0bd20e343U, 0x3d5e24803cbdf007U,
  0xba203427bc8ce73cU, 0xbd1f6a6abc976aedU, 0x3b1bfc433bc42984U, 0xbc94cc7c3c1c6e0eU,
  0xbcb8704abd3a5b03U, 0x3d1f76ccbab8ee22U, 0xbd29bb763d2fd22bU, 0xbc821d7c3bf79d34U,
  0xbd1f8fb33d1366f0U, 0x3d1729cbbce396baU, 0x3d0fab8a3c8c1597U, 0x3d823ef6bd28dabeU,
  0x3ca3801abd78dbc4U, 0xbbcfdf4bbd9de2d2U, 0xbc83a86238bad28dU, 0x3a21e226bdb7669bU,
  0xbd39de203cca72b1U, 0xbc17a19f3c0738a8U, 0xbceb8319bca7d1a7U, 0x3d00d3293d003edbU,
  0x3ade39e8bd0a6106U, 0x3aabc3a43c8f7ccdU, 0xbb821f5fbc6ee7b5U, 0xbcf9dafe3ce42ca6U,
  0xbba4b4f63ca92f75U, 0xbd39f71cbd27da77U, 0xbcc330d93a13ed26U, 0xbd89929dbc40a50fU,
  0x3d25bac8bae180c7U, 0x3c878874bcd6a50cU, 0xbd1f3af2bd951914U, 0xbd03cfc73c97ce23U,
  0x3c5d5a47bc9efd1eU, 0x3c3e9ab33bd2c74bU, 0x3b21d184bd557097U, 0xbd067f97bcdf879cU,
  0x3caea60dbb048cfbU, 0xbcccc5a5bd34a460U, 0x3d601641bda3755aU, 0xbc81f051bd2a59d6U,
  0xbd40627f3ca579ffU, 0x3ceca3223d3d9ea1U, 0x3c912efd3b9f54d0U, 0xbd5aee123ad8e977U,
  0xbd2b41423d890b23U, 0xbdc9e1bcbc8698e9U, 0x3cbfe9f13ccc7e12U, 0xbcd64fbc3cb687a4U,
  0xbcb2130d3c5b18cdU, 0xbbf06fc2bca5a353U, 0xb9e4d46abbcbd8deU, 0xbd569b71bca69398U,
  0x3c908bd1ba801420U, 0x3cd92f2d3cd2acfbU, 0xbd3de5e6bd4b35d4U, 0xbac3ef65bc6ead1fU,
  0xbda6c3f73c82b1ecU, 0xbd1d9543bd156b48U, 0xbb2c8e483cdec2dfU, 0x3d910b21bd95fe88U,
  0x3d0f2bad3bec95faU, 0xbc215c063ccb5ea5U, 0xbd37305a3ce728ceU, 0xbc25670cb9a32026U,
  0xbd0f098c3b8a776cU, 0x3cbfaa183ce5a3ecU, 0xbd4fdc2b3cc721faU, 0x3d063c2dbdcf3b5aU,
  0x3cdf69bd3cbefb66U, 0xbda1c6bf3cb6eb4dU, 0xbccd9039bc2efa39U, 0x3d83953bbd1fc492U,
  0x3c9086e1bd3d81caU, 0xbd34981b3c98708fU, 0xbd288c97bcab5564U, 0xbc6fd2b43c5dd0c2U,
  0xbd218d8f3ca75e93U, 0x3c858162bca61d2eU, 0x3c708c713cfacf72U, 0x3d3895a93cbbd4a8U,
  0xbd3fdb89bc9bb824U, 0x3c06dcf93cc71fa8U, 0x3cc40f1fbc44b5cbU, 0x3cde1d853d0e8a47U,
  0x3cfb183e3c327432U, 0xbd12df01bc5e3d15U, 0x3d51ce373c64c5d9U, 0xbda0e870bd5773a6U,
  0x3c06025bbc99daf2U, 0x3d11024fbc850c28U, 0x3ccb69063cf81eceU, 0xbd7431a83d0a80adU,
  0xbd72559abd1acab8U, 0x3c982499bced2b33U, 0x3d1e328dbc291d56U, 0x3d00a0dd3d1acd1bU,
  0xbd9be22e3caf897aU, 0x3d24e372bc5391e9U, 0xbd5b90e03d90d089U, 0x3d2ea60c389358b9U,
  0x3bd57147bcd4473cU, 0xbd068407bcc851acU, 0xbd3ef3383cf08fe9U, 0x3d8fa2b9bd104551U,
  0x3d53d0d1bc88aa03U, 0xbd0a1be63ca88888U, 0x3d11de00bb1d3564U, 0xbcf85f03bd0281afU,
  0x3bac25d5bcc6e6cdU, 0x3b946026bcb17dacU, 0xbd0c08163c366f5dU, 0x3bcbc31fbc696a0cU,
  0xbd83347fbc5399a4U, 0xbc81368abd868999U, 0x3d4c47f9bb8547c8U, 0xbd0ab1d5bc93d62dU,
  0xbcf4a39cbc985dbdU, 0x3d3532f1bd04dddcU, 0x3c475996bd6eaba6U, 0xbd7b35b93d6b345eU,
  0x3cec044dbd682200U, 0xb9fa0b0abda35d11U, 0x3d155bb43ccf10b9U, 0xbce91436bccfa1deU,
  0xba8d03d63cb8277bU, 0xbd809ae13d580f05U, 0xbc97da34bd24822eU, 0xbd16f28e3c835ce8U,
  0x3d403b1dbc55e3d1U, 0x3ccc2b17bda42318U, 0xbd17c10bbd0832e6U, 0xbd5f54003d2317e4U,
  0x3cad2c403c9b8a80U, 0x3b4c05b53cdfe564U, 0x3d324b453d4ba925U, 0x3ca921743cff4d12U,
  0x3d98d5da3d174922U, 0x3cde783a3cd4e565U, 0xbcdc73203c85d0e0U, 0x3d1094d5bc4ca761U,
  0xbb13bf9abd8c0b7cU, 0x3bb7debf3cc47d72U, 0xbc3322303cb788dcU, 0x3d96cc83bc06747cU,
  0xbbd949a1bb738ff6U, 0x3d4ae1873d5c675fU, 0x3b78d1a53cfadc10U, 0x3cf1b7263b8ee614U,
  0x3d503df83d14b573U, 0x3c22f6cc3ce6dc15U, 0xbdd2378abc68637cU, 0x3cc28155bd47f60aU,
  0x3d0c60c93b0a47b5U, 0xbd17f5133d479f5fU, 0x3d0ee1d63d41ea58U, 0xbd76a1cf3d836c3bU,
